{
  "version": "1.0",
  "truncation": null,
  "padding": null,
  "added_tokens": [
    {
      "id": 0,
      "content": "<s>",
      "single_word": false,
      "lstrip": false,
      "rstrip": false,
      "normalized": false,
      "special": true
    },
    {
      "id": 1,
      "content": "<pad>",
      "single_word": false,
      "lstrip": false,
      "rstrip": false,
      "normalized": false,
      "special": true
    },
    {
      "id": 2,
      "content": "</s>",
      "single_word": false,
      "lstrip": false,
      "rstrip": false,
      "normalized": false,
      "special": true
    },
    {
      "id": 3,
      "content": "<unk>",
      "single_word": false,
      "lstrip": false,
      "rstrip": false,
      "normalized": false,
      "special": true
    },
    {
      "id": 4,
      "content": "<mask>",
      "single_word": false,
      "lstrip": false,
      "rstrip": false,
      "normalized": false,
      "special": true
    }
  ],
  "normalizer": null,
  "pre_tokenizer": {
    "type": "ByteLevel",
    "add_prefix_space": false,
    "trim_offsets": true,
    "use_regex": true
  },
  "post_processor": {
    "type": "RobertaProcessing",
    "sep": [
      "</s>",
      2
    ],
    "cls": [
      "<s>",
      0
    ],
    "trim_offsets": true,
    "add_prefix_space": false
  },
  "decoder": {
    "type": "ByteLevel",
    "add_prefix_space": true,
    "trim_offsets": true,
    "use_regex": true
  },
  "model": {
    "type": "BPE",
    "dropout": null,
    "unk_token": null,
    "continuing_subword_prefix": "",
    "end_of_word_suffix": "",
    "fuse_unk": false,
    "byte_fallback": false,
    "ignore_merges": false,
    "vocab": {
      "<s>": 0,
      "<pad>": 1,
      "</s>": 2,
      "<unk>": 3,
      "<mask>": 4,
      "!": 5,
      "\"": 6,
      "#": 7,
      "$": 8,
      "%": 9,
      "&": 10,
      "'": 11,
      "(": 12,
      ")": 13,
      "*": 14,
      "+": 15,
      ",": 16,
      "-": 17,
      ".": 18,
      "/": 19,
      "0": 20,
      "1": 21,
      "2": 22,
      "3": 23,
      "4": 24,
      "5": 25,
      "6": 26,
      "7": 27,
      "8": 28,
      "9": 29,
      ":": 30,
      ";": 31,
      "<": 32,
      "=": 33,
      ">": 34,
      "?": 35,
      "@": 36,
      "A": 37,
      "B": 38,
      "C": 39,
      "D": 40,
      "E": 41,
      "F": 42,
      "G": 43,
      "H": 44,
      "I": 45,
      "J": 46,
      "K": 47,
      "L": 48,
      "M": 49,
      "N": 50,
      "O": 51,
      "P": 52,
      "Q": 53,
      "R": 54,
      "S": 55,
      "T": 56,
      "U": 57,
      "V": 58,
      "W": 59,
      "X": 60,
      "Y": 61,
      "Z": 62,
      "[": 63,
      "\\": 64,
      "]": 65,
      "^": 66,
      "_": 67,
      "`": 68,
      "a": 69,
      "b": 70,
      "c": 71,
      "d": 72,
      "e": 73,
      "f": 74,
      "g": 75,
      "h": 76,
      "i": 77,
      "j": 78,
      "k": 79,
      "l": 80,
      "m": 81,
      "n": 82,
      "o": 83,
      "p": 84,
      "q": 85,
      "r": 86,
      "s": 87,
      "t": 88,
      "u": 89,
      "v": 90,
      "w": 91,
      "x": 92,
      "y": 93,
      "z": 94,
      "{": 95,
      "|": 96,
      "}": 97,
      "~": 98,
      "¡": 99,
      "¢": 100,
      "£": 101,
      "¤": 102,
      "¥": 103,
      "¦": 104,
      "§": 105,
      "¨": 106,
      "©": 107,
      "ª": 108,
      "«": 109,
      "¬": 110,
      "®": 111,
      "¯": 112,
      "°": 113,
      "±": 114,
      "²": 115,
      "³": 116,
      "´": 117,
      "µ": 118,
      "¶": 119,
      "·": 120,
      "¸": 121,
      "¹": 122,
      "º": 123,
      "»": 124,
      "¼": 125,
      "½": 126,
      "¾": 127,
      "¿": 128,
      "À": 129,
      "Á": 130,
      "Â": 131,
      "Ã": 132,
      "Ä": 133,
      "Å": 134,
      "Æ": 135,
      "Ç": 136,
      "È": 137,
      "É": 138,
      "Ê": 139,
      "Ë": 140,
      "Ì": 141,
      "Í": 142,
      "Î": 143,
      "Ï": 144,
      "Ð": 145,
      "Ñ": 146,
      "Ò": 147,
      "Ó": 148,
      "Ô": 149,
      "Õ": 150,
      "Ö": 151,
      "×": 152,
      "Ø": 153,
      "Ù": 154,
      "Ú": 155,
      "Û": 156,
      "Ü": 157,
      "Ý": 158,
      "Þ": 159,
      "ß": 160,
      "à": 161,
      "á": 162,
      "â": 163,
      "ã": 164,
      "ä": 165,
      "å": 166,
      "æ": 167,
      "ç": 168,
      "è": 169,
      "é": 170,
      "ê": 171,
      "ë": 172,
      "ì": 173,
      "í": 174,
      "î": 175,
      "ï": 176,
      "ð": 177,
      "ñ": 178,
      "ò": 179,
      "ó": 180,
      "ô": 181,
      "õ": 182,
      "ö": 183,
      "÷": 184,
      "ø": 185,
      "ù": 186,
      "ú": 187,
      "û": 188,
      "ü": 189,
      "ý": 190,
      "þ": 191,
      "ÿ": 192,
      "Ā": 193,
      "ā": 194,
      "Ă": 195,
      "ă": 196,
      "Ą": 197,
      "ą": 198,
      "Ć": 199,
      "ć": 200,
      "Ĉ": 201,
      "ĉ": 202,
      "Ċ": 203,
      "ċ": 204,
      "Č": 205,
      "č": 206,
      "Ď": 207,
      "ď": 208,
      "Đ": 209,
      "đ": 210,
      "Ē": 211,
      "ē": 212,
      "Ĕ": 213,
      "ĕ": 214,
      "Ė": 215,
      "ė": 216,
      "Ę": 217,
      "ę": 218,
      "Ě": 219,
      "ě": 220,
      "Ĝ": 221,
      "ĝ": 222,
      "Ğ": 223,
      "ğ": 224,
      "Ġ": 225,
      "ġ": 226,
      "Ģ": 227,
      "ģ": 228,
      "Ĥ": 229,
      "ĥ": 230,
      "Ħ": 231,
      "ħ": 232,
      "Ĩ": 233,
      "ĩ": 234,
      "Ī": 235,
      "ī": 236,
      "Ĭ": 237,
      "ĭ": 238,
      "Į": 239,
      "į": 240,
      "İ": 241,
      "ı": 242,
      "Ĳ": 243,
      "ĳ": 244,
      "Ĵ": 245,
      "ĵ": 246,
      "Ķ": 247,
      "ķ": 248,
      "ĸ": 249,
      "Ĺ": 250,
      "ĺ": 251,
      "Ļ": 252,
      "ļ": 253,
      "Ľ": 254,
      "ľ": 255,
      "Ŀ": 256,
      "ŀ": 257,
      "Ł": 258,
      "ł": 259,
      "Ń": 260,
      "la": 261,
      "Ġk": 262,
      "on": 263,
      "Ġla": 264,
      "Ġe": 265,
      "ta": 266,
      "Ġp": 267,
      "Ġd": 268,
      "oj": 269,
      "an": 270,
      "is": 271,
      "aj": 272,
      "er": 273,
      "Ġde": 274,
      "Ġs": 275,
      "en": 276,
      "in": 277,
      "Ġa": 278,
      "or": 279,
      "Ġm": 280,
      "li": 281,
      "ti": 282,
      "as": 283,
      "ar": 284,
      "Ġn": 285,
      "to": 286,
      "re": 287,
      "Ġkaj": 288,
      "ÄĿ": 289,
      "ro": 290,
      "ri": 291,
      "Ġes": 292,
      "te": 293,
      "un": 294,
      "Äī": 295,
      "Ġen": 296,
      "Ġv": 297,
      "ÅŃ": 298,
      "Ġf": 299,
      "ra": 300,
      "om": 301,
      "le": 302,
      "ci": 303,
      "Ġki": 304,
      "tas": 305,
      "lo": 306,
      "Ġal": 307,
      "am": 308,
      "Ġt": 309,
      "al": 310,
      "Ġti": 311,
      "ĠÄī": 312,
      "toj": 313,
      "do": 314,
      "ur": 315,
      "Ġestas": 316,
      "el": 317,
      "ka": 318,
      "es": 319,
      "io": 320,
      "Ġne": 321,
      "Ġi": 322,
      "Ġre": 323,
      "Ġb": 324,
      "tis": 325,
      "Ġin": 326,
      "Ġh": 327,
      "Ġvi": 328,
      "ĠK": 329,
      "ĠL": 330,
      "di": 331,
      "ĠE": 332,
      "ojn": 333,
      "Ġkon": 334,
      "Ġpo": 335,
      "âĢ": 336,
      "ÅĿ": 337,
      "Ġmi": 338,
      "per": 339,
      "Ġpor": 340,
      "taj": 341,
      "ko": 342,
      "Ġli": 343,
      "ĠS": 344,
      "ter": 345,
      "ul": 346,
      "Ġj": 347,
      "Ġg": 348,
      "ig": 349,
      "Ġ(": 350,
      "um": 351,
      "ĠM": 352,
      "uj": 353,
      "Ġan": 354,
      "Ġo": 355,
      "Ġpro": 356,
      "ĠA": 357,
      "da": 358,
      "Ġ1": 359,
      "vi": 360,
      "ĠÄĿ": 361,
      "ran": 362,
      "Ġse": 363,
      "Ġmal": 364,
      "ĠP": 365,
      "us": 366,
      "ks": 367,
      "ĠÄīi": 368,
      "Ġl": 369,
      "ajn": 370,
      "de": 371,
      "Ġke": 372,
      "Ġpri": 373,
      "vo": 374,
      "Ġkun": 375,
      "Ġper": 376,
      "vas": 377,
      "Ġsi": 378,
      "po": 379,
      "ĠT": 380,
      "Ġel": 381,
      "st": 382,
      "Äµ": 383,
      "kon": 384,
      "va": 385,
      "ita": 386,
      "em": 387,
      "ĠLa": 388,
      "tu": 389,
      "ĠÅĿ": 390,
      "co": 391,
      "ing": 392,
      "ton": 393,
      "Ġestis": 394,
      "lan": 395,
      "ru": 396,
      "mo": 397,
      "peran": 398,
      "ĠâĢ": 399,
      "Ġsu": 400,
      "don": 401,
      "zi": 402,
      "ĠN": 403,
      "Ġkom": 404,
      "pe": 405,
      "ĠaÅŃ": 406,
      "tan": 407,
      "ĠB": 408,
      "Ġdi": 409,
      "Ġkiu": 410,
      "Ġ2": 411,
      "os": 412,
      "las": 413,
      "Ġpli": 414,
      "du": 415,
      "ĠD": 416,
      "lu": 417,
      "ĠV": 418,
      "ia": 419,
      "aro": 420,
      "ĠI": 421,
      "Ġte": 422,
      "iÄĿ": 423,
      "Ġun": 424,
      "aÅŃ": 425,
      "ce": 426,
      "Ġkiel": 427,
      "Ġinter": 428,
      "gi": 429,
      "Ġek": 430,
      "Ġpre": 431,
      "kaÅŃ": 432,
      "Ġri": 433,
      "ĠÄ": 434,
      "ĠEs": 435,
      "ve": 436,
      "ren": 437,
      "aci": 438,
      "oni": 439,
      "Ġili": 440,
      "ten": 441,
      "Ġunu": 442,
      "ĠF": 443,
      "ma": 444,
      "La": 445,
      "Ġni": 446,
      "ĠR": 447,
      "ris": 448,
      "eb": 449,
      "Ġtiu": 450,
      "go": 451,
      "tra": 452,
      "il": 453,
      "Ġali": 454,
      "Ġfor": 455,
      "ĠG": 456,
      "uz": 457,
      "ek": 458,
      "Ġsed": 459,
      "Ġsen": 460,
      "dis": 461,
      "Ġdis": 462,
      "ĠEsperan": 463,
      "ki": 464,
      "ino": 465,
      "Ġmon": 466,
      "ĠÄīe": 467,
      "Ġha": 468,
      "man": 469,
      "Ġ\"": 470,
      "ĠJ": 471,
      "pon": 472,
      "ol": 473,
      "mi": 474,
      "fi": 475,
      "ga": 476,
      "Ġc": 477,
      "ver": 478,
      "ĠH": 479,
      "00": 480,
      "tr": 481,
      "pa": 482,
      "vis": 483,
      "ĠÄĿi": 484,
      "taÅŃ": 485,
      "me": 486,
      "Ġsur": 487,
      "Ġoni": 488,
      "Ġver": 489,
      "..": 490,
      "tri": 491,
      "Ġfar": 492,
      "ĠU": 493,
      "Ġkiuj": 494,
      "jo": 495,
      "fer": 496,
      "bo": 497,
      "Ġ19": 498,
      "ni": 499,
      "Ġka": 500,
      "tojn": 501,
      "tro": 502,
      "doj": 503,
      "ala": 504,
      "diÄī": 505,
      "ĠC": 506,
      "ven": 507,
      "men": 508,
      "tor": 509,
      "Ġling": 510,
      "ÄĿo": 511,
      "Ġpar": 512,
      "Ġap": 513,
      "Ġar": 514,
      "pi": 515,
      "aÄµ": 516,
      "ble": 517,
      "ed": 518,
      "Ġ-": 519,
      "Ġta": 520,
      "Ġdu": 521,
      "lej": 522,
      "Ġpa": 523,
      "ĠankaÅŃ": 524,
      "Ġor": 525,
      "ĠlaÅŃ": 526,
      "Ġtra": 527,
      "Ġuz": 528,
      "Ġpovas": 529,
      "ono": 530,
      "van": 531,
      "loj": 532,
      "Ġtio": 533,
      "so": 534,
      "pren": 535,
      "zo": 536,
      "Ġda": 537,
      "ku": 538,
      "gan": 539,
      "ĠEsperanto": 540,
      "cio": 541,
      "Ġno": 542,
      "ĠMi": 543,
      "Ġplej": 544,
      "Ġnom": 545,
      "bor": 546,
      "Ġtu": 547,
      "ĠVi": 548,
      "Ġnur": 549,
      "ĠÄĪ": 550,
      "ata": 551,
      "Ġhom": 552,
      "dan": 553,
      "for": 554,
      "Ġkons": 555,
      "Ġmul": 556,
      "ado": 557,
      "Ġjar": 558,
      "Ġlo": 559,
      "ĠO": 560,
      "kaj": 561,
      "Ġ3": 562,
      "Ġsub": 563,
      "kti": 564,
      "Ġbon": 565,
      "no": 566,
      "Ġtro": 567,
      "Ġmem": 568,
      "Ġekz": 569,
      "gis": 570,
      ").": 571,
      "ke": 572,
      "bro": 573,
      "ÄĿis": 574,
      "ĠÅĿi": 575,
      "lon": 576,
      "Ġdum": 577,
      "den": 578,
      "koj": 579,
      "ero": 580,
      "ĠLi": 581,
      "kto": 582,
      "Ġgran": 583,
      "Ġra": 584,
      "laj": 585,
      "Ġle": 586,
      "ĠEn": 587,
      "ara": 588,
      "Ġpost": 589,
      "ĠantaÅŃ": 590,
      "Ġres": 591,
      "ub": 592,
      "roj": 593,
      "ern": 594,
      "das": 595,
      "âĢĿ": 596,
      "Ġeks": 597,
      "Ġme": 598,
      "gra": 599,
      "uloj": 600,
      "kaz": 601,
      "ge": 602,
      "Ġman": 603,
      "res": 604,
      "bu": 605,
      "kri": 606,
      "Ġmin": 607,
      "mp": 608,
      "kis": 609,
      "vers": 610,
      "Ġma": 611,
      "mon": 612,
      "Ġpl": 613,
      "ras": 614,
      "Ġven": 615,
      "ilo": 616,
      "),": 617,
      "ch": 618,
      "ĠTi": 619,
      "Ġsam": 620,
      "ca": 621,
      "mes": 622,
      "ron": 623,
      "01": 624,
      "eni": 625,
      "eblas": 626,
      "kondiÄī": 627,
      "Ġtre": 628,
      "Ġak": 629,
      "Ġlan": 630,
      "ber": 631,
      "Ġhavas": 632,
      "ab": 633,
      "con": 634,
      "Ġnun": 635,
      "ĠÄīiuj": 636,
      "igi": 637,
      "voj": 638,
      "Ġ:": 639,
      "sta": 640,
      "Ġest": 641,
      "lio": 642,
      "ento": 643,
      "ej": 644,
      "Ġokaz": 645,
      "stru": 646,
      "Ġmo": 647,
      "pan": 648,
      "si": 649,
      "aÄµo": 650,
      "Ġur": 651,
      "Ġjam": 652,
      "Ġsci": 653,
      "oro": 654,
      "Ġkiam": 655,
      "Ġesperan": 656,
      "Ġso": 657,
      "lik": 658,
      "rin": 659,
      "daj": 660,
      "Ġol": 661,
      "ÄĿas": 662,
      "Ġsin": 663,
      "ĠNe": 664,
      "Ġeble": 665,
      "Ġgra": 666,
      "ces": 667,
      "ĠKom": 668,
      "ĠÄīar": 669,
      "ĠâĢĶ": 670,
      "ĠÂ": 671,
      "Ġsta": 672,
      "ľi": 673,
      "Ġtiuj": 674,
      "iÄĿis": 675,
      "Ġdo": 676,
      "lin": 677,
      "Ġko": 678,
      "tiko": 679,
      "tajn": 680,
      "ĠâĢľ": 681,
      "Ġku": 682,
      "Ġsia": 683,
      "ĠAn": 684,
      "Ġlabor": 685,
      "Ġkontra": 686,
      "raj": 687,
      "Ġaldon": 688,
      "ĠÄĿis": 689,
      "Ġtem": 690,
      "por": 691,
      "tita": 692,
      "Ġje": 693,
      "kta": 694,
      "ĠÄĿin": 695,
      "tem": 696,
      "Ġlingvo": 697,
      "...": 698,
      "Ġbe": 699,
      "par": 700,
      "Ġteks": 701,
      "Ġkre": 702,
      "Ġvor": 703,
      "isto": 704,
      "Ġesti": 705,
      "Ġkomen": 706,
      "gas": 707,
      "tribu": 708,
      "za": 709,
      "ĠIn": 710,
      "ulo": 711,
      "Ġvo": 712,
      "Ġser": 713,
      "Ġ201": 714,
      "ĠKaj": 715,
      "tur": 716,
      "vaj": 717,
      "Ġaliaj": 718,
      "Ġmor": 719,
      "pu": 720,
      "Ġpen": 721,
      "ha": 722,
      "ze": 723,
      "Ġsek": 724,
      "Ġfa": 725,
      "ksi": 726,
      "pro": 727,
      "Ġpermes": 728,
      "Ġkel": 729,
      "ante": 730,
      "amen": 731,
      "ï¿": 732,
      "krib": 733,
      "ï¿½": 734,
      "ina": 735,
      "ĠkontraÅŃ": 736,
      "ĠÄīef": 737,
      "zon": 738,
      "pre": 739,
      "Ġneni": 740,
      "ĠKi": 741,
      "tos": 742,
      "kci": 743,
      "Ġfi": 744,
      "ano": 745,
      "gar": 746,
      "moj": 747,
      "Ġkomun": 748,
      "Ġtran": 749,
      "Ġparto": 750,
      "kor": 751,
      "Ġtri": 752,
      "son": 753,
      "Ġparo": 754,
      "Ġ[": 755,
      "Ġspe": 756,
      "Ġjaroj": 757,
      "ba": 758,
      "umo": 759,
      "anoj": 760,
      "Ġfin": 761,
      "Ġtie": 762,
      "ite": 763,
      "ĠeÄī": 764,
      "ale": 765,
      "Ġtiel": 766,
      "erman": 767,
      "antoj": 768,
      "Ġam": 769,
      "anta": 770,
      "Ġter": 771,
      "na": 772,
      "Ġpos": 773,
      "tre": 774,
      "ejo": 775,
      "Äµo": 776,
      "pen": 777,
      "Ġele": 778,
      "uzi": 779,
      "Ġ200": 780,
      "et": 781,
      "Ġ4": 782,
      "vin": 783,
      "ĠSed": 784,
      "Ġkor": 785,
      "goj": 786,
      "tin": 787,
      "ple": 788,
      "Ġof": 789,
      "Ġdeta": 790,
      "von": 791,
      "ĠâĢĵ": 792,
      "acia": 793,
      "Ġdispon": 794,
      "ĠW": 795,
      "Ġmia": 796,
      "ĠSe": 797,
      "ĠkondiÄī": 798,
      "Ġsian": 799,
      "bon": 800,
      "cen": 801,
      "Ġteksto": 802,
      "ĠÄīiu": 803,
      "Ġplen": 804,
      "Ġro": 805,
      "Ä¥": 806,
      "zen": 807,
      "istoj": 808,
      "kul": 809,
      "coj": 810,
      "lando": 811,
      "Ġba": 812,
      "Ġdevas": 813,
      "ĠKomun": 814,
      "ĠÅ": 815,
      "rea": 816,
      "ÄĿi": 817,
      "ling": 818,
      "ĠKon": 819,
      "Ġhomoj": 820,
      "Ġci": 821,
      "Ġmili": 822,
      "Ġeb": 823,
      "Ġ5": 824,
      "Ġinf": 825,
      "ali": 826,
      "Ġekzis": 827,
      "Ġmar": 828,
      "var": 829,
      "En": 830,
      "dio": 831,
      "dap": 832,
      "Ġplu": 833,
      "ĠPo": 834,
      "ĠNi": 835,
      "ĠkondiÄīoj": 836,
      "ir": 837,
      "kas": 838,
      "Ġunua": 839,
      "ÅŃro": 840,
      "Äµoj": 841,
      "ĠÄľi": 842,
      "pl": 843,
      "Ġkiun": 844,
      "ĠZ": 845,
      "Ġhis": 846,
      "min": 847,
      "turo": 848,
      "ÄĿoj": 849,
      "gani": 850,
      "cep": 851,
      "Äīe": 852,
      "Ġkie": 853,
      "Ġ18": 854,
      "ener": 855,
      "Ġpermesilo": 856,
      "kom": 857,
      "ĠinK": 858,
      "gu": 859,
      "Ġdetaloj": 860,
      "Ġaper": 861,
      "Ġtradu": 862,
      "ĠVidu": 863,
      "Ġdon": 864,
      "Ġsig": 865,
      "it": 866,
      "volu": 867,
      "ho": 868,
      "Ġiom": 869,
      "Ġ|": 870,
      "Ġurbo": 871,
      "Ġaplik": 872,
      "igis": 873,
      "ismo": 874,
      "Ġpas": 875,
      "Ġmultaj": 876,
      "Ġdivers": 877,
      "kan": 878,
      "Sam": 879,
      "ĠÂ«": 880,
      "Ġtiun": 881,
      "oje": 882,
      "Ġlia": 883,
      "Ġkio": 884,
      "Ġpe": 885,
      "Ġlin": 886,
      "der": 887,
      "pri": 888,
      "Ġartiko": 889,
      "ĠKrea": 890,
      "ĠKomunaÄµo": 891,
      "tribuite": 892,
      "ting": 893,
      "Ġnia": 894,
      "taro": 895,
      "kondiÄīe": 896,
      "ud": 897,
      "ĠMar": 898,
      "omo": 899,
      "Ġinfor": 900,
      "Ġtrans": 901,
      "Ġgranda": 902,
      "Ġapar": 903,
      "daptita": 904,
      "Ġhel": 905,
      "eo": 906,
      "ier": 907,
      "Ġjun": 908,
      "Ġfon": 909,
      "Ġfra": 910,
      "Ġaldonaj": 911,
      "ĠAtribuite": 912,
      "SamkondiÄīe": 913,
      "kondiÄīojn": 914,
      "Ġdisponeblas": 915,
      "tio": 916,
      "Ġcer": 917,
      "ĠNea": 918,
      "kte": 919,
      "ĠuzkondiÄīojn": 920,
      "gio": 921,
      "ĠNeadaptita": 922,
      "Ġaplikeblas": 923,
      "Ġna": 924,
      "Ġmals": 925,
      "Ġtrovi": 926,
      "gon": 927,
      "Ġkan": 928,
      "Ġkompren": 929,
      "cia": 930,
      "Ġkla": 931,
      "pli": 932,
      "Ġjaro": 933,
      "tern": 934,
      "Ġafer": 935,
      "Ġja": 936,
      "Ġce": 937,
      "eto": 938,
      "åĮ": 939,
      "ç¤": 940,
      "Ġankor": 941,
      "ç¤¼": 942,
      "cis": 943,
      "åĮħ": 944,
      "Ġmondo": 945,
      "ç¤¼åĮħ": 946,
      "Ġtion": 947,
      "âĢ¦": 948,
      "ç¤¼åĮħç¤¼åĮħ": 949,
      "Ġtute": 950,
      "nu": 951,
      "ami": 952,
      "Ġlern": 953,
      "Ġpov": 954,
      "se": 955,
      "Mi": 956,
      "ĠÄīu": 957,
      "ÄĪ": 958,
      "Ġdiris": 959,
      "ini": 960,
      "Ġlon": 961,
      "ĠRe": 962,
      "19": 963,
      "Ġpoli": 964,
      "Ġins": 965,
      "fa": 966,
      "igo": 967,
      "Ġposte": 968,
      "poj": 969,
      "ad": 970,
      "ori": 971,
      "Ġfun": 972,
      "Ġmala": 973,
      "elo": 974,
      "Ġtiam": 975,
      "Â»": 976,
      "Ġju": 977,
      "Ġintern": 978,
      "Ġilin": 979,
      "Ġkul": 980,
      "ÄĿa": 981,
      "Ġvin": 982,
      "Ġrice": 983,
      "Ġvoj": 984,
      "Ġlu": 985,
      "Ã¡": 986,
      "fo": 987,
      "kla": 988,
      "Ġorgani": 989,
      "Ġtamen": 990,
      "Ġpub": 991,
      "hi": 992,
      "tika": 993,
      "Ġren": 994,
      "ĠâĢ¢": 995,
      "ĠAl": 996,
      "Ġiu": 997,
      "ÄĿon": 998,
      "âĢĶ": 999,
      "Ġbone": 1000,
      "Ġestos": 1001,
      "ser": 1002,
      "iÄĿas": 1003,
      "ux": 1004,
      "bi": 1005,
      "Ġang": 1006,
      "Ġaten": 1007,
      "tempe": 1008,
      "eri": 1009,
      "Ġrespon": 1010,
      "ĠankoraÅŃ": 1011,
      "Ġliber": 1012,
      "eco": 1013,
      "Ġkelkaj": 1014,
      "Ġfil": 1015,
      "tp": 1016,
      "Ġvia": 1017,
      "kces": 1018,
      "Ġrila": 1019,
      "lis": 1020,
      "Ġtempo": 1021,
      "Ġskrib": 1022,
      "Ġsuper": 1023,
      "Ġalia": 1024,
      "Ġnova": 1025,
      "ĠÄīir": 1026,
      "rus": 1027,
      "ĠÄĪi": 1028,
      "wa": 1029,
      "ĠÅĿan": 1030,
      "Ġmulte": 1031,
      "Ġdeman": 1032,
      "Ġdan": 1033,
      "ĠMa": 1034,
      "Ġ6": 1035,
      "tistoj": 1036,
      "toro": 1037,
      "eno": 1038,
      "uo": 1039,
      "Ġpartopren": 1040,
      "vos": 1041,
      "dojn": 1042,
      "gran": 1043,
      "Ġsa": 1044,
      "Ġhistor": 1045,
      "Ġprof": 1046,
      "ĠÄīirkaÅŃ": 1047,
      "Ġekzem": 1048,
      "din": 1049,
      "Ġad": 1050,
      "Ġkonstru": 1051,
      "Ġekster": 1052,
      "Ġnor": 1053,
      "ĠÄīiam": 1054,
      "kam": 1055,
      "he": 1056,
      "Ġofte": 1057,
      "Ġekzistas": 1058,
      "Ġinteres": 1059,
      "ĠloÄĿ": 1060,
      "Ġide": 1061,
      "Ġkri": 1062,
      "anto": 1063,
      "Ġsigni": 1064,
      "Ġtuta": 1065,
      "Ġspeci": 1066,
      "Ã©": 1067,
      "gita": 1068,
      "uti": 1069,
      "Ġmen": 1070,
      "ask": 1071,
      "itaj": 1072,
      "bla": 1073,
      "igas": 1074,
      "Ġprogra": 1075,
      "Ġlando": 1076,
      "Ġhavis": 1077,
      "Ġvar": 1078,
      "Ġraj": 1079,
      "ĠÅĿta": 1080,
      "im": 1081,
      "Ġrez": 1082,
      "Ġplan": 1083,
      "Ġpra": 1084,
      "Ġpens": 1085,
      "ĠdaÅŃ": 1086,
      "Ġsan": 1087,
      "Ġpres": 1088,
      "ujo": 1089,
      "Ġperson": 1090,
      "zio": 1091,
      "mis": 1092,
      "Ġprop": 1093,
      "be": 1094,
      "tran": 1095,
      "\".": 1096,
      "reso": 1097,
      "broj": 1098,
      "spe": 1099,
      "ĠPor": 1100,
      "Ġindi": 1101,
      "mas": 1102,
      "ĠFran": 1103,
      "Ġprezen": 1104,
      "Ġsukces": 1105,
      "labor": 1106,
      "vado": 1107,
      "Ġregis": 1108,
      "Ġajn": 1109,
      "Ġinstru": 1110,
      "tigi": 1111,
      "ine": 1112,
      "Äīo": 1113,
      "klu": 1114,
      "Ġcen": 1115,
      "fek": 1116,
      "EA": 1117,
      "acio": 1118,
      "ĠPa": 1119,
      "xi": 1120,
      "ĠÄµ": 1121,
      "igita": 1122,
      "Ġdeci": 1123,
      "Ġ7": 1124,
      "gen": 1125,
      "Ġgru": 1126,
      "Ġvolas": 1127,
      "foje": 1128,
      "Ġkro": 1129,
      "ĠIli": 1130,
      "Ġvol": 1131,
      "mar": 1132,
      "Ġproksi": 1133,
      "teco": 1134,
      "Ġrigar": 1135,
      "Ġpi": 1136,
      "\",": 1137,
      "vor": 1138,
      "âĢľ": 1139,
      "ĠEk": 1140,
      "Ġofi": 1141,
      "alo": 1142,
      "ion": 1143,
      "troj": 1144,
      "ant": 1145,
      "at": 1146,
      "eli": 1147,
      "gres": 1148,
      "Ġkva": 1149,
      "gn": 1150,
      "maj": 1151,
      "aÄµoj": 1152,
      "inta": 1153,
      "Ġ8": 1154,
      "Ġmalf": 1155,
      "Ġsiaj": 1156,
      "Ġkol": 1157,
      "Ġdev": 1158,
      "Ġating": 1159,
      "Ġvivo": 1160,
      "Ġkap": 1161,
      "kur": 1162,
      "Ġnu": 1163,
      "Ġpopo": 1164,
      "Ġokazis": 1165,
      "boj": 1166,
      "kojn": 1167,
      "Ġfari": 1168,
      "Ġsol": 1169,
      "Ġstu": 1170,
      "ĠEÅŃro": 1171,
      "Ġprodu": 1172,
      "Ġbezon": 1173,
      "sono": 1174,
      "iste": 1175,
      "feren": 1176,
      "wave": 1177,
      "tado": 1178,
      "Ġsitu": 1179,
      "Ġnov": 1180,
      "Ġsufi": 1181,
      "mul": 1182,
      "ĠPro": 1183,
      "Ġgerman": 1184,
      "Ġami": 1185,
      "sen": 1186,
      "Ġregi": 1187,
      "umen": 1188,
      "Ġob": 1189,
      "onoj": 1190,
      "Ġkonsi": 1191,
      "ĠAr": 1192,
      "Ġ9": 1193,
      "Ġplur": 1194,
      "Ġdiversaj": 1195,
      "mojn": 1196,
      "zoj": 1197,
      "Ġfran": 1198,
      "ĠMon": 1199,
      "vankam": 1200,
      "Ġrenkon": 1201,
      "Ġfo": 1202,
      "Ġlingvoj": 1203,
      "Ġkam": 1204,
      "Ġop": 1205,
      "alaj": 1206,
      "tura": 1207,
      "uro": 1208,
      "Ġho": 1209,
      "Ġsimp": 1210,
      "ktoj": 1211,
      "ĠÄľ": 1212,
      "Ġneces": 1213,
      "kra": 1214,
      "ama": 1215,
      "iÄĿo": 1216,
      "ĠÄĪu": 1217,
      "cioj": 1218,
      "Ġtur": 1219,
      "paro": 1220,
      "ana": 1221,
      "Ġï¿½": 1222,
      "kajn": 1223,
      "ĠNo": 1224,
      "gado": 1225,
      "kipe": 1226,
      "ĠTio": 1227,
      "danto": 1228,
      "ec": 1229,
      "Ġkur": 1230,
      "greso": 1231,
      "ena": 1232,
      "Ġlandoj": 1233,
      "ĠDio": 1234,
      "Ġves": 1235,
      "zor": 1236,
      "kciden": 1237,
      "Ġdezi": 1238,
      "Ġsignif": 1239,
      "ut": 1240,
      "ĠâĢŀ": 1241,
      "Ġkuti": 1242,
      "lojn": 1243,
      "Ġrapi": 1244,
      "ataj": 1245,
      "tera": 1246,
      "tru": 1247,
      "pas": 1248,
      "eble": 1249,
      "Ġ15": 1250,
      "Ġkion": 1251,
      "lor": 1252,
      "ona": 1253,
      "tejo": 1254,
      "ĠSan": 1255,
      "Ġenha": 1256,
      "ĠPar": 1257,
      "ĠKa": 1258,
      "ere": 1259,
      "ne": 1260,
      "Ġge": 1261,
      "sa": 1262,
      ".[": 1263,
      "Ġkiujn": 1264,
      "are": 1265,
      "Ġnek": 1266,
      "iero": 1267,
      "Es": 1268,
      "Ġmuzi": 1269,
      "Ġpreci": 1270,
      "cento": 1271,
      "daÅŃ": 1272,
      "gaj": 1273,
      "Ġ199": 1274,
      "itato": 1275,
      "ler": 1276,
      "ĠÅľ": 1277,
      "ĠTiu": 1278,
      "kado": 1279,
      "ligi": 1280,
      "br": 1281,
      "Ġkies": 1282,
      "rio": 1283,
      "Ġeldon": 1284,
      "tion": 1285,
      "Ġsoci": 1286,
      "caj": 1287,
      "Ġkar": 1288,
      "Ġartikolo": 1289,
      "ĠMe": 1290,
      "Ġkvar": 1291,
      "ĠUEA": 1292,
      "ebla": 1293,
      "Ġvian": 1294,
      "Ġfaris": 1295,
      "Ġflu": 1296,
      "ĠÅĿajn": 1297,
      "Ġsimi": 1298,
      "inio": 1299,
      "ĠDo": 1300,
      "itan": 1301,
      "Ġhomo": 1302,
      "Ġorganiz": 1303,
      "Ġru": 1304,
      "Ġmalpli": 1305,
      "esto": 1306,
      "Ġve": 1307,
      "kt": 1308,
      "Ġ10": 1309,
      "vol": 1310,
      "rojek": 1311,
      "Ġnomo": 1312,
      "ĠÃ": 1313,
      "ĠUnu": 1314,
      "Ġestus": 1315,
      "Ġlas": 1316,
      "Ġ17": 1317,
      "Ġpropon": 1318,
      "dita": 1319,
      "Ġproble": 1320,
      "Ġfami": 1321,
      "Ġakcep": 1322,
      "Ġfaci": 1323,
      "ĠGerman": 1324,
      "ĠDe": 1325,
      "eloj": 1326,
      "embro": 1327,
      "Ġbona": 1328,
      "ĠJa": 1329,
      "ĠSo": 1330,
      "Ġscias": 1331,
      "Ġtia": 1332,
      "Ġuni": 1333,
      "titu": 1334,
      "000": 1335,
      "Äīi": 1336,
      "ĠOni": 1337,
      "tino": 1338,
      "iloj": 1339,
      "Ġtuj": 1340,
      "Ġtut": 1341,
      "KO": 1342,
      "Ġangla": 1343,
      "Ġfunkci": 1344,
      "ĠÄĿener": 1345,
      "Ġed": 1346,
      "Ġpovus": 1347,
      "aloj": 1348,
      "veno": 1349,
      "ĠAÅŃ": 1350,
      "Ġgvi": 1351,
      "ĠLe": 1352,
      "Ġab": 1353,
      "Ki": 1354,
      "ĠJo": 1355,
      "Ġsiajn": 1356,
      "ĠMal": 1357,
      "Ġmalgran": 1358,
      "ĠpreskaÅŃ": 1359,
      "ĠUni": 1360,
      "Ġrakon": 1361,
      "minis": 1362,
      "Ġelek": 1363,
      "amo": 1364,
      "Ġespri": 1365,
      "kso": 1366,
      "ĠTamen": 1367,
      "Ġprezi": 1368,
      "diaÅŃ": 1369,
      "ĠĠ": 1370,
      "Ġkonsider": 1371,
      "ang": 1372,
      "tras": 1373,
      "len": 1374,
      "Ġvizi": 1375,
      "Ġjarcento": 1376,
      "Ġbil": 1377,
      "ula": 1378,
      "Ġorig": 1379,
      "ĠÄĿus": 1380,
      "ĠÄĿia": 1381,
      "ĠPost": 1382,
      "âĢĻ": 1383,
      "kov": 1384,
      "Ġscien": 1385,
      "Ġekde": 1386,
      "Ġties": 1387,
      "Ġpovis": 1388,
      "Ġuzi": 1389,
      "eder": 1390,
      "Ġjen": 1391,
      "Ġto": 1392,
      "ww": 1393,
      "Ġekzemple": 1394,
      "ĠDum": 1395,
      "tisto": 1396,
      "ĠRo": 1397,
      "Ti": 1398,
      "jek": 1399,
      "Ġktp": 1400,
      "mento": 1401,
      "Ġbi": 1402,
      "gx": 1403,
      "Ġblo": 1404,
      "Ġ16": 1405,
      "Ġkole": 1406,
      "Ġ12": 1407,
      "tes": 1408,
      "Ġprin": 1409,
      "Ġdek": 1410,
      "pis": 1411,
      "Ġneniam": 1412,
      "liko": 1413,
      "Ġval": 1414,
      "Ġbata": 1415,
      "Ġfilo": 1416,
      "Ġvir": 1417,
      "teri": 1418,
      "Ġfru": 1419,
      "Ġsiste": 1420,
      "ç¤¼åĮħç¤¼åĮħç¤¼åĮħç¤¼åĮħ": 1421,
      "Ġfer": 1422,
      "Ġ20": 1423,
      "cer": 1424,
      "Ġten": 1425,
      "inoj": 1426,
      "Ġevolu": 1427,
      "Ġkura": 1428,
      "Ġakti": 1429,
      "pab": 1430,
      "cas": 1431,
      "bar": 1432,
      "stataÅŃ": 1433,
      "Ġkres": 1434,
      "Ġoku": 1435,
      "rita": 1436,
      "Äµojn": 1437,
      "vu": 1438,
      "Ġnask": 1439,
      "Ġmona": 1440,
      "ĠtroviÄĿas": 1441,
      "Ġflan": 1442,
      "Ġhej": 1443,
      "Ġpren": 1444,
      "Ġsubten": 1445,
      "tero": 1446,
      "Ġestu": 1447,
      "cion": 1448,
      "majn": 1449,
      "Ġim": 1450,
      "Ġrezul": 1451,
      "Ġpris": 1452,
      "ĠÄĪe": 1453,
      "th": 1454,
      "panio": 1455,
      "tum": 1456,
      "konom": 1457,
      "gus": 1458,
      "tive": 1459,
      "tante": 1460,
      "lika": 1461,
      "eroj": 1462,
      "Ġ14": 1463,
      "Ġtiom": 1464,
      "Ġpu": 1465,
      "Ġuzas": 1466,
      "ÅĿi": 1467,
      "Ġvere": 1468,
      "ĠÅľi": 1469,
      "dek": 1470,
      "fri": 1471,
      "vita": 1472,
      "ĠInter": 1473,
      "ĠSa": 1474,
      "and": 1475,
      "Ġesperanto": 1476,
      "oroj": 1477,
      "18": 1478,
      "dia": 1479,
      "ĠSi": 1480,
      "sio": 1481,
      "Ġspi": 1482,
      "Ġnaci": 1483,
      "uno": 1484,
      "Ġsame": 1485,
      "Ġ.": 1486,
      "bur": 1487,
      "Ġdua": 1488,
      "zis": 1489,
      "Ġ,": 1490,
      "ĠBa": 1491,
      "Ġdisku": 1492,
      "lingva": 1493,
      "Ġesperantistoj": 1494,
      "Ġâ": 1495,
      "elon": 1496,
      "Ġlibro": 1497,
      "ges": 1498,
      "ÃŃ": 1499,
      "Ġopini": 1500,
      "inte": 1501,
      "baÅŃ": 1502,
      "ĠkaÅŃ": 1503,
      "Ġuti": 1504,
      "ĠDi": 1505,
      "Ġpla": 1506,
      "intaj": 1507,
      "Ġaparten": 1508,
      "Ġsper": 1509,
      "Ġ13": 1510,
      "Ġpublik": 1511,
      "ĠJes": 1512,
      "tik": 1513,
      "Äīa": 1514,
      "rek": 1515,
      "Ġ/": 1516,
      "KOKO": 1517,
      "socio": 1518,
      "teg": 1519,
      "iÄĿi": 1520,
      "Ġevi": 1521,
      "lajn": 1522,
      "una": 1523,
      "umi": 1524,
      "Ġinternacia": 1525,
      "Ġprojek": 1526,
      "Ġsama": 1527,
      "antaj": 1528,
      "ora": 1529,
      "Ġdom": 1530,
      "Ġdok": 1531,
      "Ġneniu": 1532,
      "zaÅŃ": 1533,
      "Ġmalfer": 1534,
      "Li": 1535,
      "ĠÄīio": 1536,
      "Ġkvankam": 1537,
      "far": 1538,
      "âĢĿ.": 1539,
      "Ġvortoj": 1540,
      "ÅĿo": 1541,
      "Ġkomunumo": 1542,
      "Ġpatr": 1543,
      "ĠEl": 1544,
      "Ġdif": 1545,
      "dus": 1546,
      "kipedio": 1547,
      "fon": 1548,
      "10": 1549,
      "amenho": 1550,
      "emo": 1551,
      "Ġdiras": 1552,
      "enta": 1553,
      "ĠanstataÅŃ": 1554,
      "ĠUnivers": 1555,
      "Ġnin": 1556,
      "Ġmalfaci": 1557,
      "vio": 1558,
      "ist": 1559,
      "Ġdef": 1560,
      "Ġamas": 1561,
      "ord": 1562,
      "Ġdisvol": 1563,
      "ros": 1564,
      "12": 1565,
      "ck": 1566,
      "Ġ'": 1567,
      "Ġkara": 1568,
      "Ġmaj": 1569,
      "Ġvorto": 1570,
      "Ġinklu": 1571,
      "kisto": 1572,
      "logio": 1573,
      "ĠÄīiujn": 1574,
      "Ġilia": 1575,
      "Ġlingvon": 1576,
      "Ġkondu": 1577,
      "aÄĿ": 1578,
      "Ġrus": 1579,
      "ĠUsono": 1580,
      "ĠCh": 1581,
      "Ã³": 1582,
      "Ġkontro": 1583,
      "Ġstra": 1584,
      "Ġdos": 1585,
      "Ġespl": 1586,
      "vojn": 1587,
      "Ġfare": 1588,
      "ĠSu": 1589,
      "Ġvid": 1590,
      "ume": 1591,
      "nove": 1592,
      "kvi": 1593,
      "lito": 1594,
      "ja": 1595,
      "Ġmod": 1596,
      "Ġvila": 1597,
      "Ġafero": 1598,
      "Ġsep": 1599,
      "Ġvenis": 1600,
      "lita": 1601,
      "Ġrenkonti": 1602,
      "Ġklas": 1603,
      "Ġson": 1604,
      "An": 1605,
      "kton": 1606,
      "mal": 1607,
      "Ġler": 1608,
      "ame": 1609,
      "Ġofici": 1610,
      "Ġkonf": 1611,
      "ĠkvazaÅŃ": 1612,
      "ĠBo": 1613,
      "Ġbo": 1614,
      "ÄĪi": 1615,
      "Ġkomencis": 1616,
      "Ġmis": 1617,
      "].": 1618,
      "Ġgrava": 1619,
      "Ġaperis": 1620,
      "tigis": 1621,
      "logi": 1622,
      "Ġdenove": 1623,
      "Ġeblas": 1624,
      "ĠPer": 1625,
      "âĢĿ,": 1626,
      "ĠLu": 1627,
      "tema": 1628,
      "kita": 1629,
      "Ġaran": 1630,
      "Ġklari": 1631,
      "int": 1632,
      "Ġtago": 1633,
      "run": 1634,
      "Ġpoliti": 1635,
      "titaj": 1636,
      "Ġgrand": 1637,
      "Ġ198": 1638,
      "Ġreg": 1639,
      "Ġlasta": 1640,
      "Ġmemor": 1641,
      "risto": 1642,
      "Ġus": 1643,
      "peranto": 1644,
      "era": 1645,
      "Ġekonom": 1646,
      "los": 1647,
      "leks": 1648,
      "gojn": 1649,
      "estro": 1650,
      "Ġkapab": 1651,
      "alis": 1652,
      "kos": 1653,
      "Ġpatro": 1654,
      "ĠKiam": 1655,
      "ĠMo": 1656,
      "flu": 1657,
      "ĠEsperanton": 1658,
      "Ġlaboro": 1659,
      "tilo": 1660,
      "Ġesper": 1661,
      "ele": 1662,
      "Ġloko": 1663,
      "Ġreda": 1664,
      "tiva": 1665,
      "Ġmian": 1666,
      "Ġrimar": 1667,
      "Ġmalbon": 1668,
      "ĠÅĿa": 1669,
      "can": 1670,
      "Ġden": 1671,
      "Ġbu": 1672,
      "ĠKro": 1673,
      "ĠÂ»": 1674,
      "skul": 1675,
      "ene": 1676,
      "pana": 1677,
      "Ġkune": 1678,
      "kuloj": 1679,
      "gos": 1680,
      "anu": 1681,
      "ĠÄīefe": 1682,
      "Ġ;": 1683,
      "Ġhistorio": 1684,
      "kio": 1685,
      "Ġkunlabor": 1686,
      "Ġtele": 1687,
      "Ġniaj": 1688,
      "ĠKo": 1689,
      "Ġricevis": 1690,
      "Ġeven": 1691,
      "Ġmalno": 1692,
      "Ġtradi": 1693,
      "ioj": 1694,
      "Ġalian": 1695,
      "cojn": 1696,
      "Ġkomple": 1697,
      "ĠVikipedio": 1698,
      "Ġiuj": 1699,
      "pub": 1700,
      "uni": 1701,
      "dos": 1702,
      "ĠRus": 1703,
      "Ġversio": 1704,
      "Ġ0": 1705,
      "ĠZamenho": 1706,
      "ktas": 1707,
      "ĠambaÅŃ": 1708,
      "Ġkrom": 1709,
      "Ġprakti": 1710,
      "Ġbal": 1711,
      "Ġsistemo": 1712,
      "nom": 1713,
      "venis": 1714,
      "Ġprofes": 1715,
      "pozi": 1716,
      "Ġkvin": 1717,
      "Ġviv": 1718,
      "ski": 1719,
      "Ġsim": 1720,
      "lia": 1721,
      "'s": 1722,
      "bron": 1723,
      "Ġapud": 1724,
      "ĠEÅŃropo": 1725,
      "gia": 1726,
      "ajne": 1727,
      "Ġhon": 1728,
      "Ġkal": 1729,
      "Ġriver": 1730,
      "ejoj": 1731,
      "graf": 1732,
      "ĠHo": 1733,
      "paj": 1734,
      "ĠGermanio": 1735,
      "rem": 1736,
      "Ġpoten": 1737,
      "cx": 1738,
      "stan": 1739,
      "ore": 1740,
      "Ġion": 1741,
      "ĠDu": 1742,
      "prezen": 1743,
      "Ġmult": 1744,
      "omen": 1745,
      "Ġga": 1746,
      "Ġ...": 1747,
      "ĠNa": 1748,
      "zas": 1749,
      "In": 1750,
      "Ġori": 1751,
      "ĠÐ": 1752,
      "ĠJu": 1753,
      "Ġgrupo": 1754,
      "ard": 1755,
      "Vi": 1756,
      "cern": 1757,
      "telo": 1758,
      "ĠTo": 1759,
      "Ġkonsis": 1760,
      "ĠIntern": 1761,
      "Se": 1762,
      "Ġrapide": 1763,
      "Ġedz": 1764,
      "urbo": 1765,
      "Ġliaj": 1766,
      "Ġcxi": 1767,
      "ĠPol": 1768,
      "ĠKiel": 1769,
      "Ġ11": 1770,
      "Ġfranca": 1771,
      "Ġiam": 1772,
      "Ġsal": 1773,
      "Äµon": 1774,
      "ĠHis": 1775,
      "Ġvidis": 1776,
      "Ġgrandan": 1777,
      "Ni": 1778,
      "Ġmond": 1779,
      "Ġretejo": 1780,
      "ak": 1781,
      "Ġaki": 1782,
      "Ġpluraj": 1783,
      "Ġalta": 1784,
      "Ġer": 1785,
      "Ġgas": 1786,
      "ES": 1787,
      "Ġunivers": 1788,
      "ĠHa": 1789,
      "ĀĀ": 1790,
      "Ġdor": 1791,
      "ĠRa": 1792,
      "menaÅŃ": 1793,
      "Ġhav": 1794,
      "Ġkomer": 1795,
      "Ġcivi": 1796,
      "Ġregiono": 1797,
      "Ġfaras": 1798,
      "peri": 1799,
      "Ã¼": 1800,
      "Ġdir": 1801,
      "Ġaspe": 1802,
      "ela": 1803,
      "Ġdiri": 1804,
      "Ġtemas": 1805,
      "Ġgrandaj": 1806,
      ".\"": 1807,
      "ĠIs": 1808,
      "ĠEtern": 1809,
      "Ġtiujn": 1810,
      "torio": 1811,
      "ĠhodiaÅŃ": 1812,
      "Ġeni": 1813,
      "ĠJen": 1814,
      "tanta": 1815,
      "Po": 1816,
      "sek": 1817,
      "ĠPri": 1818,
      "Ġvidi": 1819,
      "Ġefi": 1820,
      "ĠPe": 1821,
      "Ġmilito": 1822,
      "ĠVer": 1823,
      "ĠTa": 1824,
      "Ġgermana": 1825,
      "Ġkonser": 1826,
      "Ġsignifas": 1827,
      "ĠLaÅŃ": 1828,
      "tono": 1829,
      "Ġkris": 1830,
      "Ġprovi": 1831,
      "aran": 1832,
      "Ġakvo": 1833,
      "Ġokciden": 1834,
      "long": 1835,
      "Ġpun": 1836,
      "Ġbri": 1837,
      "Ġradi": 1838,
      "tiÄĿis": 1839,
      "val": 1840,
      "Ġprecipe": 1841,
      "ĠsufiÄīe": 1842,
      "ĠKar": 1843,
      "eg": 1844,
      "Ġeli": 1845,
      "Ġkelkajn": 1846,
      "Ġret": 1847,
      "jor": 1848,
      "Ġkonata": 1849,
      "kondu": 1850,
      "Ġinten": 1851,
      "Ġaliajn": 1852,
      "ĠvoÄī": 1853,
      "Ġokazas": 1854,
      "plo": 1855,
      "ura": 1856,
      "Ġkomuni": 1857,
      "Ġlitera": 1858,
      "ĠEstas": 1859,
      "tigas": 1860,
      "ĠZamenhof": 1861,
      "adon": 1862,
      "Ġ197": 1863,
      "flan": 1864,
      "Ġrapor": 1865,
      "fe": 1866,
      "Ġon": 1867,
      "Ġmil": 1868,
      "Ġmas": 1869,
      "depen": 1870,
      "joj": 1871,
      "qu": 1872,
      "jara": 1873,
      "parte": 1874,
      "reta": 1875,
      "Ġhun": 1876,
      "Ġvide": 1877,
      "kar": 1878,
      "Ġefek": 1879,
      "Ġmultajn": 1880,
      "ulojn": 1881,
      "gh": 1882,
      "ÅĿan": 1883,
      "vanta": 1884,
      "Ġkoncern": 1885,
      "dado": 1886,
      "Ġinflu": 1887,
      "ĠAm": 1888,
      "Ġ194": 1889,
      "Ġnovaj": 1890,
      "Ġ193": 1891,
      "Ġbezonas": 1892,
      "Ġtemp": 1893,
      "Ġcerte": 1894,
      "ktado": 1895,
      "Ġmez": 1896,
      "Ġmenci": 1897,
      "Ġsemajn": 1898,
      "hel": 1899,
      "pra": 1900,
      "stra": 1901,
      "Ġimp": 1902,
      "Ġkongres": 1903,
      "Ġpriskrib": 1904,
      "Ġfla": 1905,
      "ksa": 1906,
      "tron": 1907,
      "ĠfariÄĿis": 1908,
      "Ġban": 1909,
      "pos": 1910,
      "ĠRi": 1911,
      "tano": 1912,
      "Ġmedi": 1913,
      "Ġprefer": 1914,
      "cien": 1915,
      "nab": 1916,
      "su": 1917,
      "ĠEternulo": 1918,
      "Ġcx": 1919,
      "Ġdistri": 1920,
      "AT": 1921,
      "15": 1922,
      "zer": 1923,
      "into": 1924,
      "tantoj": 1925,
      "Ġnovan": 1926,
      "zem": 1927,
      "Ġteri": 1928,
      "Ġinternaci": 1929,
      "ĠRes": 1930,
      "ĠPre": 1931,
      "ulino": 1932,
      "les": 1933,
      "Ġkutime": 1934,
      "antojn": 1935,
      "ĠiÄĿis": 1936,
      "Ġproksim": 1937,
      "Ġio": 1938,
      "ĠalmenaÅŃ": 1939,
      "Ġreprezen": 1940,
      "ÄĿojn": 1941,
      "ĠÄīam": 1942,
      "ĠaÅŃto": 1943,
      "iga": 1944,
      "Ġtagoj": 1945,
      "Ġvirin": 1946,
      "Ġideo": 1947,
      "ĠJoh": 1948,
      "blo": 1949,
      "Ġkru": 1950,
      "20": 1951,
      "bio": 1952,
      "Ġvesper": 1953,
      "igitaj": 1954,
      "joro": 1955,
      "Ġmontri": 1956,
      "ĠserÄī": 1957,
      "rilo": 1958,
      "Ġdec": 1959,
      "Ġfoj": 1960,
      "Ġrespe": 1961,
      "Ġpere": 1962,
      "17": 1963,
      "Ġfen": 1964,
      "ktis": 1965,
      "Ġinfanoj": 1966,
      "Ġpersonoj": 1967,
      "Ġmalmul": 1968,
      "inon": 1969,
      "Ġgaze": 1970,
      "ĠÄĿuste": 1971,
      "Ġmiaj": 1972,
      "ĠeÅŃro": 1973,
      "Ġsimple": 1974,
      "pula": 1975,
      "Ġkomenci": 1976,
      "Ġtial": 1977,
      "ĠY": 1978,
      "tanoj": 1979,
      "Ġ?": 1980,
      "iaj": 1981,
      "ĠX": 1982,
      "Ġunue": 1983,
      "oma": 1984,
      "Ġ196": 1985,
      "dre": 1986,
      "Ġses": 1987,
      "ĠFrancio": 1988,
      "Ġformo": 1989,
      "proksi": 1990,
      "ĠAnkaÅŃ": 1991,
      "Ġanka": 1992,
      "vidu": 1993,
      "klo": 1994,
      "//": 1995,
      "id": 1996,
      "Ġfacile": 1997,
      "Ġfino": 1998,
      "EJ": 1999,
      "ttp": 2000,
      "kuto": 2001,
      "Por": 2002,
      "Ġblan": 2003,
      "Ġviza": 2004,
      "ĠSek": 2005,
      "gru": 2006,
      "Ġzor": 2007,
      "Ġnombro": 2008,
      "Ġprofun": 2009,
      "Ġ25": 2010,
      "ĠFa": 2011,
      "Ġbru": 2012,
      "Ġordon": 2013,
      "Ġvas": 2014,
      "://": 2015,
      "ĠÄĪinio": 2016,
      "Ġ30": 2017,
      "Ġtrovis": 2018,
      "Ġelekti": 2019,
      "Ġmembroj": 2020,
      "ĠOr": 2021,
      "tris": 2022,
      "ts": 2023,
      "Ġiliaj": 2024,
      "Ġperio": 2025,
      "Ġkarak": 2026,
      "jon": 2027,
      "lus": 2028,
      "blio": 2029,
      "tus": 2030,
      "Ġsupo": 2031,
      "dam": 2032,
      "ome": 2033,
      "lado": 2034,
      "Ġprezidanto": 2035,
      "Ġkial": 2036,
      "Ġaferoj": 2037,
      "aron": 2038,
      "ĠAli": 2039,
      "ĠNun": 2040,
      "Ġdekla": 2041,
      "Ġadminis": 2042,
      "ie": 2043,
      "rajn": 2044,
      "Ġare": 2045,
      "ER": 2046,
      "Ġkontribu": 2047,
      "Ġfine": 2048,
      "ĠSankta": 2049,
      "tigo": 2050,
      "Ġtas": 2051,
      "Ġpropra": 2052,
      "Ġduon": 2053,
      "Ġag": 2054,
      "ĠÄīefa": 2055,
      "Ġkultur": 2056,
      "ĠaÅŃskul": 2057,
      "Ġhavi": 2058,
      "Ġmovado": 2059,
      "Ġmontras": 2060,
      "landa": 2061,
      "ĠmanÄĿ": 2062,
      "pun": 2063,
      "Ġpopolo": 2064,
      "Ġstari": 2065,
      "blaj": 2066,
      "ĠaÅŃtor": 2067,
      "ov": 2068,
      "soj": 2069,
      "Ġdevus": 2070,
      "Ġfamilio": 2071,
      "ĠSin": 2072,
      "dante": 2073,
      "Ġtutan": 2074,
      "Ġmur": 2075,
      "Ġregistaro": 2076,
      "Ġdevis": 2077,
      "Ġinkluzi": 2078,
      "11": 2079,
      "Ġestr": 2080,
      "Ġnig": 2081,
      "âĢĵ": 2082,
      "Ġparolas": 2083,
      "aroj": 2084,
      "Ġfir": 2085,
      "Ġtek": 2086,
      "ĠDan": 2087,
      "Ġlonga": 2088,
      "ĠKun": 2089,
      "Ã¶": 2090,
      "Ġdiferen": 2091,
      "deco": 2092,
      "Ġkos": 2093,
      "ĠGo": 2094,
      "pera": 2095,
      "ĠInternacia": 2096,
      "Ġkonta": 2097,
      "Ġaperas": 2098,
      "ÅĿis": 2099,
      "Ġbaz": 2100,
      "daÄµo": 2101,
      "Ġvoja": 2102,
      "Ġeston": 2103,
      "tal": 2104,
      "wi": 2105,
      "mita": 2106,
      "Ġlian": 2107,
      "Ġmortis": 2108,
      "bri": 2109,
      "ĠÄĿoj": 2110,
      "Ġurb": 2111,
      "mem": 2112,
      "Ġcelo": 2113,
      "zono": 2114,
      "leco": 2115,
      "Ġata": 2116,
      "Ġmorto": 2117,
      "Ġarme": 2118,
      "14": 2119,
      "ĠÅĿtato": 2120,
      "Ġnen": 2121,
      "ulon": 2122,
      "ato": 2123,
      "Ġtito": 2124,
      "ju": 2125,
      "ĠreÄĿo": 2126,
      "TO": 2127,
      "Ġdomo": 2128,
      "Ġnome": 2129,
      "ĠSen": 2130,
      "komen": 2131,
      "esta": 2132,
      "Ġnian": 2133,
      "Ġprogramo": 2134,
      "ĠCen": 2135,
      "acioj": 2136,
      "Ġsendepen": 2137,
      "ĠÅĿia": 2138,
      "Ġlonge": 2139,
      "Ġkov": 2140,
      "bra": 2141,
      "Ġmalj": 2142,
      "Ġdonis": 2143,
      "dra": 2144,
      "Ġprovin": 2145,
      "str": 2146,
      "Ġinfan": 2147,
      "ÄĿaj": 2148,
      "ista": 2149,
      "Ġdecembro": 2150,
      "Ġanta": 2151,
      "Ġkiom": 2152,
      "Ġbra": 2153,
      "Ġuzata": 2154,
      "orio": 2155,
      "Ġfeli": 2156,
      "Ġkompu": 2157,
      "Ġras": 2158,
      "via": 2159,
      "Ġknab": 2160,
      "org": 2161,
      "poko": 2162,
      "uma": 2163,
      "tn": 2164,
      "ĠPollando": 2165,
      "ian": 2166,
      "teno": 2167,
      "'t": 2168,
      "Ġdosier": 2169,
      "Ġtiaj": 2170,
      "ĠUn": 2171,
      "16": 2172,
      "Ġplibon": 2173,
      "Ġ195": 2174,
      "Ġsufer": 2175,
      "ag": 2176,
      "Ġlegi": 2177,
      "vajn": 2178,
      "įã": 2179,
      "ĠaÄīe": 2180,
      "oste": 2181,
      "talo": 2182,
      "ĠNor": 2183,
      "ĠBri": 2184,
      "com": 2185,
      "Ġlim": 2186,
      "Ġunuan": 2187,
      "13": 2188,
      "Ġprote": 2189,
      "tere": 2190,
      "Ġnomon": 2191,
      "Ġregu": 2192,
      "ĠBer": 2193,
      "Ġ=": 2194,
      "Ġmodern": 2195,
      "lova": 2196,
      "Ĩįã": 2197,
      "est": 2198,
      "Ġpru": 2199,
      "skrib": 2200,
      "ĠantaÅŃe": 2201,
      "reto": 2202,
      "ĠKan": 2203,
      "Ġserio": 2204,
      "Ġpopula": 2205,
      "tala": 2206,
      "Ġfu": 2207,
      "ÂŃ": 2208,
      "ĨįãĨįã": 2209,
      "Ġfakte": 2210,
      "Ġnum": 2211,
      "dor": 2212,
      "Ġaser": 2213,
      "Ġprepar": 2214,
      "eks": 2215,
      "tia": 2216,
      "Ġbir": 2217,
      "Ġ24": 2218,
      "Ġau": 2219,
      "Ġfinan": 2220,
      "publiko": 2221,
      "Ġklo": 2222,
      "mio": 2223,
      "vuo": 2224,
      "Ġmalgranda": 2225,
      "Ġmes": 2226,
      "umoj": 2227,
      "Ġpovos": 2228,
      "foj": 2229,
      "kre": 2230,
      "Ġligi": 2231,
      "tel": 2232,
      "Ġvidas": 2233,
      "ĠJe": 2234,
      "ĠBon": 2235,
      "fra": 2236,
      "201": 2237,
      "velo": 2238,
      "ĠÅĿanÄĿ": 2239,
      "kade": 2240,
      "Ġesplor": 2241,
      "Tiu": 2242,
      "kun": 2243,
      ".)": 2244,
      "bas": 2245,
      "www": 2246,
      "zar": 2247,
      "isma": 2248,
      "Ġedu": 2249,
      "ĠĠĠĠ": 2250,
      "Ġviaj": 2251,
      "ĠBi": 2252,
      "ÅĿajne": 2253,
      "Ġkongreso": 2254,
      "gusto": 2255,
      "mor": 2256,
      "ĠÅĿin": 2257,
      "ĠÄīion": 2258,
      "ĠGran": 2259,
      "Ġgener": 2260,
      "Ġuzo": 2261,
      "kistoj": 2262,
      "ban": 2263,
      "Ġ100": 2264,
      "Ġfrem": 2265,
      "ind": 2266,
      "Ġtag": 2267,
      "Sed": 2268,
      "amaj": 2269,
      "Ġlar": 2270,
      "Ġobjek": 2271,
      "Ġene": 2272,
      "igu": 2273,
      "Ġforlas": 2274,
      "ĠLo": 2275,
      "Ġtemo": 2276,
      "Ġprele": 2277,
      "Ġmembro": 2278,
      "Ġis": 2279,
      "Ġapartenas": 2280,
      "trepren": 2281,
      "isi": 2282,
      "ĠtaÅŃ": 2283,
      "ĠpreÄĿ": 2284,
      "graÅŃ": 2285,
      "Ġsamtempe": 2286,
      "Ġroman": 2287,
      "Ġdeziras": 2288,
      "Ġsukcesis": 2289,
      "dustri": 2290,
      "ĠAntaÅŃ": 2291,
      "ilon": 2292,
      "Ġvojo": 2293,
      "tun": 2294,
      "Ð°": 2295,
      "Post": 2296,
      "blas": 2297,
      "Ġmalsu": 2298,
      "Esperanto": 2299,
      "kin": 2300,
      "ç¤¼åĮħç¤¼åĮħç¤¼åĮħç¤¼åĮħç¤¼åĮħç¤¼åĮħç¤¼åĮħç¤¼åĮħ": 2301,
      "permes": 2302,
      "--": 2303,
      "Ġhal": 2304,
      "Dum": 2305,
      "ĠDa": 2306,
      "Ġdire": 2307,
      "ĠJesuo": 2308,
      "Ġr": 2309,
      "tar": 2310,
      "Ġstre": 2311,
      "Ġdisvas": 2312,
      "ĠNov": 2313,
      "Ġdivi": 2314,
      "zemple": 2315,
      "ĠÄĪar": 2316,
      "ÅĤ": 2317,
      "lezio": 2318,
      "Ġrea": 2319,
      "Ne": 2320,
      "ĠTiam": 2321,
      "ema": 2322,
      "Ġeviden": 2323,
      "IN": 2324,
      "ÅĿa": 2325,
      "Ġem": 2326,
      "diÄĿis": 2327,
      "venas": 2328,
      "Ġforges": 2329,
      "ĠÄĿenerale": 2330,
      "lern": 2331,
      "Ġokul": 2332,
      "Kaj": 2333,
      "Ġ192": 2334,
      "vig": 2335,
      "Ġas": 2336,
      "kaze": 2337,
      "ĠpaÄĿo": 2338,
      "Ġmono": 2339,
      "Ġsituas": 2340,
      "Ġverko": 2341,
      "'m": 2342,
      "Ġfes": 2343,
      "Ġsola": 2344,
      "Ġnuna": 2345,
      "Ð¾": 2346,
      "Ġstran": 2347,
      "dantoj": 2348,
      "Ġrestis": 2349,
      "ÄĿe": 2350,
      "Ġrekon": 2351,
      "ea": 2352,
      "Ġkm": 2353,
      "Ġkato": 2354,
      "his": 2355,
      "mokra": 2356,
      "fine": 2357,
      "Ġentu": 2358,
      "mu": 2359,
      "Ġlokon": 2360,
      "Ġesperantis": 2361,
      "ĠbaldaÅŃ": 2362,
      "Ġpola": 2363,
      "Ġklopo": 2364,
      "ĠSer": 2365,
      "dajn": 2366,
      "ĠTial": 2367,
      ".âĢĿ": 2368,
      "kato": 2369,
      "umon": 2370,
      "ĠBra": 2371,
      "Ġdefen": 2372,
      "flanke": 2373,
      "Ġhttp": 2374,
      "ligas": 2375,
      "Ġkas": 2376,
      "Ġapo": 2377,
      "Ġmaniero": 2378,
      "Ġia": 2379,
      "taÄµo": 2380,
      "Ġdecidis": 2381,
      "Ġspiri": 2382,
      "Ġparoli": 2383,
      "Ġmalkov": 2384,
      "Ġfamili": 2385,
      "uman": 2386,
      "anuaro": 2387,
      "ĠFo": 2388,
      "ĠÄīees": 2389,
      "Ġunuaj": 2390,
      "zan": 2391,
      "ĠKongreso": 2392,
      "Ġobser": 2393,
      "Ġhor": 2394,
      "iko": 2395,
      "Ġmeto": 2396,
      "Ġrif": 2397,
      "ĠSur": 2398,
      "Ġkelk": 2399,
      "Ġega": 2400,
      "Ġprinci": 2401,
      "Ġfoje": 2402,
      "grafio": 2403,
      "Ġgravaj": 2404,
      "Ġcir": 2405,
      "Ġkli": 2406,
      "Ġhomojn": 2407,
      "tiÄĿo": 2408,
      "aÄµojn": 2409,
      "Ġverkoj": 2410,
      "aÄµon": 2411,
      "Ġagado": 2412,
      "Ġdona": 2413,
      "tigita": 2414,
      "Ġenhavas": 2415,
      "ktan": 2416,
      "Ġchi": 2417,
      "ĠEÅŃropa": 2418,
      "Ġpozi": 2419,
      "deks": 2420,
      "ÄĿos": 2421,
      "truk": 2422,
      "Ġrime": 2423,
      "mentoj": 2424,
      "Ġpartoprenis": 2425,
      "ez": 2426,
      "Ġentrepren": 2427,
      "Ġplenum": 2428,
      "brojn": 2429,
      "ĠdaÅŃre": 2430,
      "Ġva": 2431,
      "Ġofer": 2432,
      "ph": 2433,
      "Ġjarojn": 2434,
      "Ġmallon": 2435,
      "ĠDis": 2436,
      "urn": 2437,
      "ktobro": 2438,
      "ĠHun": 2439,
      "ign": 2440,
      "Ġrestas": 2441,
      "Ġfilozo": 2442,
      "Ġtero": 2443,
      "ent": 2444,
      "Ġdonas": 2445,
      "Ġfaj": 2446,
      "bel": 2447,
      "ĠTiel": 2448,
      "eron": 2449,
      "ĠdaÅŃri": 2450,
      "gante": 2451,
      "Ġkomenc": 2452,
      "ĠKristo": 2453,
      "laÅŃ": 2454,
      "Ġkomenco": 2455,
      "Ġ2016": 2456,
      "Ġdes": 2457,
      "Ġreli": 2458,
      "trum": 2459,
      "Åľ": 2460,
      "ĠUK": 2461,
      "ins": 2462,
      "ĠTra": 2463,
      "Ġtru": 2464,
      "umentoj": 2465,
      "AN": 2466,
      "ĠpoÅĿ": 2467,
      "ktojn": 2468,
      "Ġnecesas": 2469,
      "kribo": 2470,
      "ĠBu": 2471,
      "Ġjulio": 2472,
      "alon": 2473,
      "Ġkompar": 2474,
      "ĠEsperanta": 2475,
      "pens": 2476,
      "Ġima": 2477,
      "Ġaga": 2478,
      "turi": 2479,
      "taÄµoj": 2480,
      "'d": 2481,
      "Ġbela": 2482,
      "Ġ2017": 2483,
      "Ġvera": 2484,
      "Ġiris": 2485,
      "gle": 2486,
      "KOKOKOKO": 2487,
      "ure": 2488,
      "Ġkrei": 2489,
      "Ġtutmon": 2490,
      "Ġvolis": 2491,
      "Ġdisting": 2492,
      "Ġokup": 2493,
      "uri": 2494,
      "Ġinvi": 2495,
      "stro": 2496,
      "Kon": 2497,
      "Ġero": 2498,
      "Ġpensas": 2499,
      "ĠÄīefurbo": 2500,
      "30": 2501,
      "Ġprojekto": 2502,
      "ÄĪu": 2503,
      "Ġfavor": 2504,
      "ili": 2505,
      "Ġarb": 2506,
      "Ġrest": 2507,
      "ĠLiber": 2508,
      "intoj": 2509,
      "Al": 2510,
      "Ġvenas": 2511,
      "Ġdistrikto": 2512,
      "Ġorigin": 2513,
      "ĠLia": 2514,
      "Ġkulturo": 2515,
      "ĠÄĿu": 2516,
      "Ġanon": 2517,
      "Ġdepen": 2518,
      "ĠIsra": 2519,
      "Ġreali": 2520,
      "Ġesperanta": 2521,
      "Ġrete": 2522,
      "arden": 2523,
      "Ġnatur": 2524,
      "Ġinformoj": 2525,
      "Äīas": 2526,
      "Ġindividu": 2527,
      "Ġrajtas": 2528,
      "Ġturn": 2529,
      "ĠaÅŃtoro": 2530,
      "Ġposed": 2531,
      ");": 2532,
      "Ġgla": 2533,
      "perio": 2534,
      "Ġ190": 2535,
      "tembro": 2536,
      "Ġvalor": 2537,
      "200": 2538,
      "EJO": 2539,
      "rante": 2540,
      "Ġmer": 2541,
      "Ġsocio": 2542,
      "Ġple": 2543,
      "Ġdetru": 2544,
      "Äīoj": 2545,
      "Ġmarto": 2546,
      "Ġantik": 2547,
      "iris": 2548,
      "kcio": 2549,
      "Ġw": 2550,
      "ĠSch": 2551,
      "Ġrilate": 2552,
      "ĠVin": 2553,
      "ĠTiuj": 2554,
      "Ġiun": 2555,
      "ty": 2556,
      "teroj": 2557,
      "cistoj": 2558,
      "Ġ2010": 2559,
      "Ġblogo": 2560,
      "Ġkonas": 2561,
      "lantoj": 2562,
      "kitaj": 2563,
      "Ġgen": 2564,
      "ĠPoste": 2565,
      "ĠMos": 2566,
      "Ġnacia": 2567,
      "ĠFor": 2568,
      "pero": 2569,
      "eblaj": 2570,
      "Â°": 2571,
      "mado": 2572,
      "Ġgajn": 2573,
      "Ġokuloj": 2574,
      "trojn": 2575,
      "Ã¤": 2576,
      "Ġfal": 2577,
      "ejon": 2578,
      "Ġpersono": 2579,
      "Ġch": 2580,
      "Ġenkondu": 2581,
      "ĠGra": 2582,
      "Ġnenion": 2583,
      "50": 2584,
      "Ġamp": 2585,
      "ĠBar": 2586,
      "Ġdol": 2587,
      "Ġjuna": 2588,
      "lar": 2589,
      "Ġgrave": 2590,
      "gario": 2591,
      "Ġaldonu": 2592,
      "Ġjanuaro": 2593,
      "ete": 2594,
      "stitu": 2595,
      "tivo": 2596,
      "Ġlingva": 2597,
      "Ġkonkur": 2598,
      "Ġhelpi": 2599,
      "Ġlaboris": 2600,
      "ĠMan": 2601,
      "Ġkvan": 2602,
      "Ġ#": 2603,
      "Ġreligi": 2604,
      "bre": 2605,
      "liber": 2606,
      "Ġprogram": 2607,
      "Ġmajo": 2608,
      "ĠAfri": 2609,
      "Ġvivon": 2610,
      "ĠPli": 2611,
      "Ðµ": 2612,
      "Ġsor": 2613,
      "ĠIa": 2614,
      "kres": 2615,
      "pojn": 2616,
      "Dis": 2617,
      "dono": 2618,
      "Ġaso": 2619,
      "Ġhoma": 2620,
      "Ġfonton": 2621,
      "Ġmalal": 2622,
      "ĠÄµus": 2623,
      "araj": 2624,
      "Ä¥a": 2625,
      "bliote": 2626,
      "Ġran": 2627,
      "cisto": 2628,
      "Ġmilionoj": 2629,
      "Pro": 2630,
      "mig": 2631,
      "ĠvilaÄĿo": 2632,
      "libro": 2633,
      "Ġvortojn": 2634,
      "Ġproksime": 2635,
      "Ġnomata": 2636,
      "Ġproblemo": 2637,
      "ĠÅĿajnas": 2638,
      "Ġeten": 2639,
      "zaj": 2640,
      "Ġalt": 2641,
      "Ġrivero": 2642,
      "Ġnovembro": 2643,
      "Ġplilong": 2644,
      "Ġflor": 2645,
      "tata": 2646,
      "Ġfab": 2647,
      "Ġokazos": 2648,
      "Hel": 2649,
      "iere": 2650,
      "rinde": 2651,
      "ker": 2652,
      "Ġgx": 2653,
      "omento": 2654,
      "ika": 2655,
      "ĠNu": 2656,
      "Ġamikoj": 2657,
      "Ġoktobro": 2658,
      "Ġurboj": 2659,
      "uso": 2660,
      "Ġrevolu": 2661,
      "je": 2662,
      "kap": 2663,
      "umento": 2664,
      "kompren": 2665,
      "tele": 2666,
      "dento": 2667,
      "Ġskribis": 2668,
      "ebru": 2669,
      "Ġnaj": 2670,
      "Â».": 2671,
      "estoj": 2672,
      "Ġdirek": 2673,
      "Ġstruk": 2674,
      "Ġ!": 2675,
      "Ġ22": 2676,
      "Ġnepre": 2677,
      "gara": 2678,
      "ĠRusio": 2679,
      "Ġbar": 2680,
      "Ġ21": 2681,
      "Ġklare": 2682,
      "Ġnenio": 2683,
      "Ġbele": 2684,
      "vid": 2685,
      "fte": 2686,
      "Ġdifin": 2687,
      "Ġdoni": 2688,
      "ĠverÅĿajne": 2689,
      "data": 2690,
      "Ġamo": 2691,
      "Ġmuziko": 2692,
      "ciante": 2693,
      "econ": 2694,
      "ĠÄĿenerala": 2695,
      "land": 2696,
      "tiÄĿas": 2697,
      "Ġsituacio": 2698,
      "Ġkomprenas": 2699,
      "ditaj": 2700,
      "form": 2701,
      "Ġdatum": 2702,
      "Â»,": 2703,
      "Ġaprilo": 2704,
      "gno": 2705,
      "ĠÄīes": 2706,
      "ĠNur": 2707,
      "Ġatingis": 2708,
      "Ġlaboron": 2709,
      "Ġaparte": 2710,
      "ĠaÅŃgusto": 2711,
      "ĠKu": 2712,
      "][": 2713,
      "Ġrekte": 2714,
      "Ġmale": 2715,
      "tina": 2716,
      "Ġ2015": 2717,
      "Ġvirinoj": 2718,
      "ĠkaÅĿ": 2719,
      "ordo": 2720,
      "aso": 2721,
      "Ġorigina": 2722,
      "inter": 2723,
      "Ġani": 2724,
      "Ġperiodo": 2725,
      "Ġproce": 2726,
      "Ġvolon": 2727,
      "damen": 2728,
      "Ġindustri": 2729,
      "Ġlerni": 2730,
      "ĠCi": 2731,
      "Ġ2018": 2732,
      ".,": 2733,
      "Ġlong": 2734,
      "ĠHispanio": 2735,
      "milito": 2736,
      "Ġjus": 2737,
      "Ġpolitika": 2738,
      "Ġsti": 2739,
      "Ġfilmo": 2740,
      "Ġrekomen": 2741,
      "ĠnaskiÄĿis": 2742,
      "Ġseks": 2743,
      "Ġseptembro": 2744,
      "Ġcentro": 2745,
      "Ġvirino": 2746,
      "Ġkristan": 2747,
      "dro": 2748,
      "jn": 2749,
      "izo": 2750,
      "vata": 2751,
      "Ġgepa": 2752,
      "Ġrespondis": 2753,
      "Ġtrin": 2754,
      "Ġnovajn": 2755,
      "fab": 2756,
      "Å¡": 2757,
      "Ġdeks": 2758,
      "ĠMul": 2759,
      "Ġu": 2760,
      "Ġprofi": 2761,
      "kons": 2762,
      "Ġoka": 2763,
      "zia": 2764,
      "Ġatingi": 2765,
      "etoj": 2766,
      "Ġthe": 2767,
      "ence": 2768,
      "ĠÄīiuta": 2769,
      "ĠRespubliko": 2770,
      "Ġseku": 2771,
      "Ġbonan": 2772,
      "Ġtraduko": 2773,
      "kro": 2774,
      "ĠMia": 2775,
      "ĠBel": 2776,
      "ĠTEJO": 2777,
      "gip": 2778,
      "Ġuzis": 2779,
      "dejo": 2780,
      "if": 2781,
      "eriko": 2782,
      "ĠSta": 2783,
      "Ġalilingva": 2784,
      "ĠOri": 2785,
      "Ġusona": 2786,
      "ÅĿta": 2787,
      "Ġtraduku": 2788,
      "Ġ50": 2789,
      "gnos": 2790,
      "Ġbel": 2791,
      "Ġinformojn": 2792,
      "Ġalvo": 2793,
      "Ġflanko": 2794,
      "Ġmalo": 2795,
      "Ġ23": 2796,
      "Ġekzamen": 2797,
      "ligis": 2798,
      "Ġdisvolvita": 2799,
      "Ġpatrino": 2800,
      "ĠÅĿab": 2801,
      "ĠHel": 2802,
      "Ġlastaj": 2803,
      "sk": 2804,
      "Ġartikoloj": 2805,
      "Ġdemando": 2806,
      "pla": 2807,
      "uzeo": 2808,
      "ĠRu": 2809,
      "Ġfama": 2810,
      "Ġricevi": 2811,
      "ĠHer": 2812,
      "Ġtekni": 2813,
      "Ġparolis": 2814,
      "tulo": 2815,
      "ktoro": 2816,
      "Ġgre": 2817,
      "Ġjunio": 2818,
      "traj": 2819,
      "Ġtempon": 2820,
      "Ġanali": 2821,
      "Ġverkis": 2822,
      "Ġkredas": 2823,
      "ãģ": 2824,
      "Ġkonsen": 2825,
      "omoj": 2826,
      "Ġcel": 2827,
      "Ġdemokra": 2828,
      "Ġparti": 2829,
      "ĠloÄĿanta": 2830,
      "Ġplilongigi": 2831,
      "Ġeta": 2832,
      "logia": 2833,
      "Ġalpor": 2834,
      "tiv": 2835,
      "Helpu": 2836,
      "Ġrevuo": 2837,
      "Ġprezentas": 2838,
      "Ġlokoj": 2839,
      "Ġgrupoj": 2840,
      "teli": 2841,
      "tempa": 2842,
      "au": 2843,
      "Äījo": 2844,
      "Ġkomuna": 2845,
      "LI": 2846,
      "Ġspa": 2847,
      "âĪ": 2848,
      "lantaÅŃ": 2849,
      "LaÅŃ": 2850,
      "ĠKel": 2851,
      "Ġsamtema": 2852,
      "Ġtria": 2853,
      "Ġinstitu": 2854,
      "Â«": 2855,
      "baj": 2856,
      "ĠSvis": 2857,
      "Ġkapita": 2858,
      "Ġkia": 2859,
      "zojn": 2860,
      "menciante": 2861,
      "Ġron": 2862,
      "ĠVar": 2863,
      "Ġrusa": 2864,
      "Ġdiversajn": 2865,
      "Ġener": 2866,
      "Ġkonsistas": 2867,
      "ĠLing": 2868,
      "ĠEsperant": 2869,
      "zilo": 2870,
      "Ġedzino": 2871,
      "ĠpaÅĿ": 2872,
      "Ġpostu": 2873,
      "Ġege": 2874,
      "gantoj": 2875,
      "Ġmomento": 2876,
      "Ġtrankvi": 2877,
      "Ġforte": 2878,
      "dida": 2879,
      "ĠEU": 2880,
      "ĠIta": 2881,
      "pisko": 2882,
      "toroj": 2883,
      "Kiam": 2884,
      "lino": 2885,
      "ves": 2886,
      "Ġ40": 2887,
      "Ġsign": 2888,
      "Ġsom": 2889,
      "Ġmeze": 2890,
      "Ġasocio": 2891,
      "ciaj": 2892,
      "Ġmalnova": 2893,
      "eta": 2894,
      "Ġfarita": 2895,
      "igon": 2896,
      "fero": 2897,
      "ĠKrome": 2898,
      "Ġloka": 2899,
      "Ġreven": 2900,
      "Ġmalami": 2901,
      "Ġprovinco": 2902,
      "Ġkonfi": 2903,
      "Ġprogres": 2904,
      "Ġekvi": 2905,
      "ĠFin": 2906,
      "end": 2907,
      "Ġaux": 2908,
      "terna": 2909,
      "Ġpubli": 2910,
      "IV": 2911,
      "ĠTri": 2912,
      "Ġhar": 2913,
      "tecon": 2914,
      "ĠPi": 2915,
      "],": 2916,
      "rapi": 2917,
      "ĠTur": 2918,
      "ebruaro": 2919,
      "Ġminu": 2920,
      "Ġsinjor": 2921,
      "Diskuto": 2922,
      "ĠriÄī": 2923,
      "lute": 2924,
      "Ġproksimume": 2925,
      "Ek": 2926,
      "ĀĀĀĀ": 2927,
      "Ġher": 2928,
      "Ġnorma": 2929,
      "cejo": 2930,
      "bin": 2931,
      "Ġ28": 2932,
      "Ġtrovas": 2933,
      "Ġplena": 2934,
      "ĠKol": 2935,
      "ĠâĢĿ": 2936,
      "Ġkorpo": 2937,
      "Ġpromes": 2938,
      "ĠBe": 2939,
      "Ġpan": 2940,
      "ĠÄĿiaj": 2941,
      "ĠWi": 2942,
      "temp": 2943,
      "Ġgrande": 2944,
      "Ġvali": 2945,
      "tikaj": 2946,
      "Ġelsta": 2947,
      "multo": 2948,
      "ĠKiu": 2949,
      "jar": 2950,
      "Ġkonten": 2951,
      "ÅĿu": 2952,
      "teks": 2953,
      "Ġ2000": 2954,
      "fin": 2955,
      "xo": 2956,
      "AS": 2957,
      "ĠKor": 2958,
      "Ġiden": 2959,
      "Ġvivas": 2960,
      "ĠAng": 2961,
      "Ġstri": 2962,
      "kol": 2963,
      "adis": 2964,
      "Ġkonsta": 2965,
      "Ġperfek": 2966,
      "ganto": 2967,
      "ãĥ": 2968,
      "berg": 2969,
      "Ġpie": 2970,
      "Ġsolda": 2971,
      "ĠloÄĿas": 2972,
      "ft": 2973,
      "Ġini": 2974,
      "Ð¸": 2975,
      "Ġkateg": 2976,
      "Ġliteraturo": 2977,
      "Ġpropran": 2978,
      "Ġteritorio": 2979,
      "ĠFon": 2980,
      "Ġeksci": 2981,
      "Ġepoko": 2982,
      "Ġlibroj": 2983,
      "Ġmalaper": 2984,
      "Ġlibera": 2985,
      "ON": 2986,
      "ĠloÄĿantoj": 2987,
      "zita": 2988,
      "Ġlisto": 2989,
      "Ġ26": 2990,
      "Äīis": 2991,
      "Ġagnos": 2992,
      "esperan": 2993,
      "Ġviajn": 2994,
      "Ġvenon": 2995,
      "oris": 2996,
      "ĠUniversitato": 2997,
      "ĠEst": 2998,
      "Ġkoncep": 2999,
      "iÄĿos": 3000,
      "fun": 3001,
      "34": 3002,
      "Ġmateri": 3003,
      "âĪŀ": 3004,
      "Ġ27": 3005,
      "Ġmodi": 3006,
      "Ġkompreni": 3007,
      "eti": 3008,
      "24": 3009,
      "ĠIsraelo": 3010,
      "ĠGe": 3011,
      "ktaj": 3012,
      "Ġvort": 3013,
      "cie": 3014,
      "Ġbonvolu": 3015,
      "Ġapen": 3016,
      "viÄĿis": 3017,
      "ferenco": 3018,
      "vano": 3019,
      "Ġstabi": 3020,
      "Ġpron": 3021,
      "Ġmaten": 3022,
      "ps": 3023,
      "Ġgrama": 3024,
      "ĠEble": 3025,
      "ĠdanÄĿ": 3026,
      "Ġsimpla": 3027,
      "tismo": 3028,
      "Ġ2008": 3029,
      "uraj": 3030,
      "Ġkona": 3031,
      "fan": 3032,
      "mb": 3033,
      "Ġfeder": 3034,
      "ĠSte": 3035,
      "ĠÄīa": 3036,
      "Ġhe": 3037,
      "ĠTh": 3038,
      "Ġtea": 3039,
      "Ġkolekti": 3040,
      "Ġverkon": 3041,
      "ĠÄĪiuj": 3042,
      "rado": 3043,
      "ĠSam": 3044,
      "Ġparla": 3045,
      "ĠJun": 3046,
      "ĠGa": 3047,
      "Ġampleks": 3048,
      "ĠAs": 3049,
      "Ġarg": 3050,
      "Ġopinias": 3051,
      "ĠTie": 3052,
      "vante": 3053,
      "Ã¡n": 3054,
      "Ġkoro": 3055,
      "Ġkonvin": 3056,
      "Ġleg": 3057,
      "Ġiri": 3058,
      "produ": 3059,
      "Ġorien": 3060,
      "Kiel": 3061,
      "ĠTem": 3062,
      "ture": 3063,
      "Ġsocia": 3064,
      "Ġmalfacile": 3065,
      "ĠSAT": 3066,
      "Ġforta": 3067,
      "centoj": 3068,
      "Ġhispana": 3069,
      "ĠIm": 3070,
      "ÄĿu": 3071,
      "mata": 3072,
      "Ġartikolon": 3073,
      "Oni": 3074,
      "Ġtien": 3075,
      "emon": 3076,
      "rila": 3077,
      "Ġpartoj": 3078,
      "ile": 3079,
      "Ġstato": 3080,
      "ben": 3081,
      "Ġgar": 3082,
      "uroj": 3083,
      "ĠCo": 3084,
      "Ġbab": 3085,
      "mino": 3086,
      "Ġresponde": 3087,
      "ĠÅĿatas": 3088,
      "laro": 3089,
      "Ġand": 3090,
      "kiel": 3091,
      "Ġtagon": 3092,
      "Ġesperantisto": 3093,
      "Ġdosieroj": 3094,
      "Ġimperi": 3095,
      "ĠapenaÅŃ": 3096,
      "teria": 3097,
      "uza": 3098,
      "rano": 3099,
      "âĪŀâĪŀ": 3100,
      "Ġiomete": 3101,
      "legi": 3102,
      "ĠQ": 3103,
      "movado": 3104,
      "Ġkreis": 3105,
      "Ġuson": 3106,
      "istem": 3107,
      "Ġ2012": 3108,
      "plen": 3109,
      "87": 3110,
      "ok": 3111,
      "digi": 3112,
      "gri": 3113,
      "ĠÄĪiu": 3114,
      "Äľ": 3115,
      "ly": 3116,
      "ompan": 3117,
      "vali": 3118,
      "Ġkompreneble": 3119,
      "ĠUnio": 3120,
      "Ġsciis": 3121,
      "Ġvorton": 3122,
      "teron": 3123,
      "Ġpose": 3124,
      "EN": 3125,
      "Ġklu": 3126,
      "Ġjes": 3127,
      "Ġtian": 3128,
      "22": 3129,
      "Ġminis": 3130,
      "Ġrajtoj": 3131,
      "ĠAkade": 3132,
      "Ġmaldeks": 3133,
      "KU": 3134,
      "Ġviro": 3135,
      "Ġcelas": 3136,
      "rigar": 3137,
      "Ġmalproksi": 3138,
      "ĠreÄĿ": 3139,
      "kvo": 3140,
      "Ġmalri": 3141,
      "Ġfunkcias": 3142,
      "Ġordin": 3143,
      "burgo": 3144,
      "ĠSinjoro": 3145,
      "Ġpsi": 3146,
      "inda": 3147,
      "Ġkoncer": 3148,
      "Ġsilen": 3149,
      "ĠmalgraÅŃ": 3150,
      "tanto": 3151,
      "ĠUniversala": 3152,
      "alisto": 3153,
      "Ġbalo": 3154,
      "Ġmaro": 3155,
      "Ġbonaj": 3156,
      "Ġtekstoj": 3157,
      "ua": 3158,
      "Ġstar": 3159,
      "rojn": 3160,
      "tantaj": 3161,
      "ĠMaria": 3162,
      "ĠSud": 3163,
      "Ġparton": 3164,
      "tista": 3165,
      "viadi": 3166,
      "Ġara": 3167,
      "ĠÅĿton": 3168,
      "ry": 3169,
      "vel": 3170,
      "Ġnuntempe": 3171,
      "ĠJam": 3172,
      "blan": 3173,
      "Ġir": 3174,
      "nam": 3175,
      "Ġnes": 3176,
      "Ġerotika": 3177,
      "edio": 3178,
      "Ġareo": 3179,
      "Ġsendi": 3180,
      "ĠmalantaÅŃ": 3181,
      "grafi": 3182,
      "25": 3183,
      "Ġmaljun": 3184,
      "zu": 3185,
      "ĠBal": 3186,
      "Ġmalfru": 3187,
      "Ġinkluzive": 3188,
      "Ġmu": 3189,
      "Ġkandida": 3190,
      "Ġfakto": 3191,
      "Ġrela": 3192,
      "ĠSal": 3193,
      "Ġpartopreni": 3194,
      "iro": 3195,
      "ĠEkzemple": 3196,
      "ĠJapanio": 3197,
      "Ġhoro": 3198,
      "Äį": 3199,
      "Ġevoluo": 3200,
      "Ġpublika": 3201,
      "Ġmalvar": 3202,
      "stin": 3203,
      "Ġarki": 3204,
      "ĠÃĹ": 3205,
      "Ġpopoloj": 3206,
      "Ġfirma": 3207,
      "Unu": 3208,
      "Ġsekve": 3209,
      "bis": 3210,
      "Ġdemandis": 3211,
      "Ġmalpermes": 3212,
      "Ġform": 3213,
      "Ġaktu": 3214,
      "Ġadministra": 3215,
      "igos": 3216,
      "Ġsab": 3217,
      "Ġoficiala": 3218,
      "tab": 3219,
      "ĠÄĿen": 3220,
      "Ġpensis": 3221,
      "Ġgeo": 3222,
      "Ġinicia": 3223,
      "Ġmesa": 3224,
      "Ġy": 3225,
      "ĠItalio": 3226,
      "Ġbran": 3227,
      "ĠÅĿtatoj": 3228,
      "Ġpaco": 3229,
      "Ġmonatoj": 3230,
      "punkto": 3231,
      "taroj": 3232,
      "longe": 3233,
      "Ġ2011": 3234,
      "Ġpartio": 3235,
      "undo": 3236,
      "Ġkontin": 3237,
      "Ġtab": 3238,
      "Ġstuden": 3239,
      "cel": 3240,
      "Ġkompon": 3241,
      "Ġbatalo": 3242,
      "che": 3243,
      "ĠIz": 3244,
      "Mal": 3245,
      "Ġmalfacila": 3246,
      "ĠdediÄī": 3247,
      "Ġhere": 3248,
      "domo": 3249,
      "vido": 3250,
      "iÄĿon": 3251,
      "Ġprenis": 3252,
      "ĠbedaÅŃ": 3253,
      "Ġplene": 3254,
      "23": 3255,
      "):": 3256,
      "landaj": 3257,
      "Ġhi": 3258,
      "Ġrolon": 3259,
      "Ġunuo": 3260,
      "Ġmenso": 3261,
      "Ġforma": 3262,
      "Ġ2009": 3263,
      "jare": 3264,
      "Ġcent": 3265,
      "Ġpolitiko": 3266,
      "Ġkomputi": 3267,
      "alie": 3268,
      "Ġtransi": 3269,
      "Ġmonon": 3270,
      "IS": 3271,
      "Ð½": 3272,
      "pozicio": 3273,
      "Ġlum": 3274,
      "Ġmova": 3275,
      "De": 3276,
      "Ġripe": 3277,
      "acion": 3278,
      "Ġnivelo": 3279,
      "Ġmalhel": 3280,
      "40": 3281,
      "ĠGu": 3282,
      "Kom": 3283,
      "ĠLon": 3284,
      "ĠBritio": 3285,
      "rans": 3286,
      "Ġet": 3287,
      "Ġfebruaro": 3288,
      "ĠSove": 3289,
      "ĠleÄĿo": 3290,
      "Ġversi": 3291,
      "post": 3292,
      "ĠCar": 3293,
      "ĠkuÅĿ": 3294,
      "ganta": 3295,
      "tike": 3296,
      "Ġvek": 3297,
      "Ġsx": 3298,
      "Ġregistri": 3299,
      "fis": 3300,
      "Ġ{": 3301,
      "iÄĿintaj": 3302,
      "Ġvizitis": 3303,
      "Ġapro": 3304,
      "Ġarmeo": 3305,
      "Ġorgan": 3306,
      "Jen": 3307,
      "amoj": 3308,
      "ktita": 3309,
      "entoj": 3310,
      "Ġmontris": 3311,
      "ĠÄīiun": 3312,
      "ĠÄµurn": 3313,
      "Ġfrue": 3314,
      "ĠSub": 3315,
      "lono": 3316,
      "Ġkomence": 3317,
      "Ġnaturo": 3318,
      "onon": 3319,
      "ando": 3320,
      "kle": 3321,
      "Ġkrome": 3322,
      "Ġuzado": 3323,
      "arato": 3324,
      "Ġsun": 3325,
      "doni": 3326,
      "Ġverkisto": 3327,
      "vide": 3328,
      "Ġnumero": 3329,
      "Ġskribi": 3330,
      "enoj": 3331,
      "Ġdokumen": 3332,
      "vino": 3333,
      "Ġ2007": 3334,
      "Ġoper": 3335,
      "ĠÅĿablon": 3336,
      "uzo": 3337,
      "diÄĿas": 3338,
      "Ġsendis": 3339,
      "Ġ2014": 3340,
      "Ġfizi": 3341,
      "ĠKonsi": 3342,
      "Ġspecioj": 3343,
      "Ġdese": 3344,
      "bal": 3345,
      "Ġremem": 3346,
      "'ve": 3347,
      "AR": 3348,
      "ĠNeni": 3349,
      "ĠKial": 3350,
      "Ġesperas": 3351,
      "tek": 3352,
      "Estas": 3353,
      "Ġparol": 3354,
      "Ġmankas": 3355,
      "Ġrastrum": 3356,
      "ĠAX": 3357,
      "mos": 3358,
      "Ġpreter": 3359,
      "ĠSpi": 3360,
      "Ġ189": 3361,
      "Ġnatura": 3362,
      "El": 3363,
      "Ġteritor": 3364,
      "Ġbildo": 3365,
      "ĠAfriko": 3366,
      "ÑĢ": 3367,
      "ĠNeder": 3368,
      "Ã½": 3369,
      "Ġtaks": 3370,
      "Ġprezentis": 3371,
      "ÑĤ": 3372,
      "ĠmaÅĿ": 3373,
      "27": 3374,
      "venon": 3375,
      "ÄĿan": 3376,
      "ĠÄľis": 3377,
      "ĠRom": 3378,
      "Ġrastrumeroj": 3379,
      "tuloj": 3380,
      "ularo": 3381,
      "ska": 3382,
      "isiono": 3383,
      "Ġstrato": 3384,
      "ĠEkde": 3385,
      "Ġkapo": 3386,
      "enon": 3387,
      "strio": 3388,
      "kulo": 3389,
      "Ġricevas": 3390,
      "Ġkarakteri": 3391,
      "Ġ2006": 3392,
      "Ġnekon": 3393,
      "erio": 3394,
      "Ġaver": 3395,
      "Ġfinfine": 3396,
      "Ġmomen": 3397,
      "ĠHe": 3398,
      "Ġ--": 3399,
      "Ġproblemoj": 3400,
      "Ġcentra": 3401,
      "56": 3402,
      "ĠEgip": 3403,
      "reco": 3404,
      "Ġz": 3405,
      "ĠKvankam": 3406,
      "Ġakompan": 3407,
      "Ġhelpo": 3408,
      "baroj": 3409,
      "ĠloÄĿantaro": 3410,
      "ilojn": 3411,
      "dika": 3412,
      "Ġlis": 3413,
      "Ġmina": 3414,
      "Ġsankta": 3415,
      "mitaj": 3416,
      "igx": 3417,
      "Ġdank": 3418,
      "ou": 3419,
      "viÄī": 3420,
      "Ġlaboras": 3421,
      "plan": 3422,
      "Ġinteresa": 3423,
      "Ġlingvojn": 3424,
      "Ġelekto": 3425,
      "Ġentute": 3426,
      "Ġmalfor": 3427,
      "trino": 3428,
      "ĠLin": 3429,
      "ĠÅĿul": 3430,
      "dar": 3431,
      "Ġrevenis": 3432,
      "Ġfoli": 3433,
      "Ġsaman": 3434,
      "iri": 3435,
      "mia": 3436,
      "ĠÄĿian": 3437,
      "Ġgravas": 3438,
      "Ġ2013": 3439,
      "ĠÄľener": 3440,
      "Ġvan": 3441,
      "ĠGranda": 3442,
      "pita": 3443,
      "Ġblu": 3444,
      "sti": 3445,
      "ĠBen": 3446,
      "pagan": 3447,
      "landan": 3448,
      "turoj": 3449,
      "Ġrigardis": 3450,
      "tul": 3451,
      "Ġinsta": 3452,
      "Ġduo": 3453,
      "Ġgri": 3454,
      "esperanto": 3455,
      "forma": 3456,
      "Ġhoroj": 3457,
      "ĠMin": 3458,
      "Ġpala": 3459,
      "ell": 3460,
      "Ġmalgrandaj": 3461,
      "Ġlernejo": 3462,
      "ĠeÅŃ": 3463,
      "Ġsuda": 3464,
      "Ġamiko": 3465,
      "Ġkurso": 3466,
      "ĠfiÅĿ": 3467,
      "Ġbazi": 3468,
      "Ġsubskrib": 3469,
      "ĠNord": 3470,
      "uba": 3471,
      "Ñģ": 3472,
      "cz": 3473,
      "veco": 3474,
      "ĠaÅŃdis": 3475,
      "Ġestraro": 3476,
      "up": 3477,
      "Ġokaze": 3478,
      "Ġtranspor": 3479,
      "ĠEks": 3480,
      "Ġkorek": 3481,
      "Ġbibliote": 3482,
      "lingvaj": 3483,
      "ĠParizo": 3484,
      "ĠTomo": 3485,
      "Ġideoj": 3486,
      "Ġates": 3487,
      "fici": 3488,
      "ĠJohano": 3489,
      "Ġreci": 3490,
      "ĠUr": 3491,
      "Ġrezulto": 3492,
      "ĠMem": 3493,
      "ogle": 3494,
      "Ġproponas": 3495,
      "Ġdosiero": 3496,
      "enco": 3497,
      "LE": 3498,
      "Ġviroj": 3499,
      "80": 3500,
      "daÄµoj": 3501,
      "mer": 3502,
      "Ġfam": 3503,
      "lingvo": 3504,
      "ĠJos": 3505,
      "21": 3506,
      "fes": 3507,
      "zidanto": 3508,
      "Ġpubliko": 3509,
      "cajn": 3510,
      "Ġenhavo": 3511,
      "turon": 3512,
      "TC": 3513,
      "teraj": 3514,
      "ys": 3515,
      "ligo": 3516,
      "tt": 3517,
      "ãĤ": 3518,
      "hu": 3519,
      "Ġbio": 3520,
      "Ġ000": 3521,
      "ĠIKU": 3522,
      "Ġrevi": 3523,
      "ĠantaÅŃa": 3524,
      "tempo": 3525,
      "ĠFine": 3526,
      "Ġimpres": 3527,
      "ĠUN": 3528,
      "Ġvortaro": 3529,
      "ĠPas": 3530,
      "Ġrilatoj": 3531,
      "Ġparte": 3532,
      "ÄĪe": 3533,
      "Ġakiri": 3534,
      "ĠEsperantistoj": 3535,
      "ĠÄīefaj": 3536,
      "parto": 3537,
      "Mar": 3538,
      "ĠÅĿajne": 3539,
      "Ġinform": 3540,
      "Ġskla": 3541,
      "Ġsubite": 3542,
      "Ġinsulo": 3543,
      "ĠpaÄĿoj": 3544,
      "Ġ2005": 3545,
      "Ġmano": 3546,
      "Ġsupre": 3547,
      "dire": 3548,
      "Ġmalmulte": 3549,
      "Ġiras": 3550,
      "ÅĿto": 3551,
      "Ġradio": 3552,
      "ĠHungario": 3553,
      "Ġsekreta": 3554,
      "Ä¥o": 3555,
      "oron": 3556,
      "ÄĿus": 3557,
      "uron": 3558,
      "Ġkomprenis": 3559,
      "pio": 3560,
      "Ġilian": 3561,
      "Ġparola": 3562,
      "Ġeventu": 3563,
      "ciojn": 3564,
      "Ġhispan": 3565,
      "gajn": 3566,
      "Ġpartoprenantoj": 3567,
      "26": 3568,
      "ya": 3569,
      "Ġland": 3570,
      "ĠPetro": 3571,
      "ĠAleks": 3572,
      "kura": 3573,
      "zajn": 3574,
      "Ġmanoj": 3575,
      "ĠEÄī": 3576,
      "Ġaldoni": 3577,
      "Ġscen": 3578,
      "Ġnomoj": 3579,
      "Ġsimila": 3580,
      "ĠloÄĿantojn": 3581,
      "ĨĴ": 3582,
      "Ġvetur": 3583,
      "ebl": 3584,
      "Ġaro": 3585,
      "Ġben": 3586,
      "vice": 3587,
      "Ġdiskuto": 3588,
      "Ġlernis": 3589,
      "Ġkonklu": 3590,
      "Ġkompa": 3591,
      "Ġrespekti": 3592,
      "preneble": 3593,
      "Ġ29": 3594,
      "Ġsubstan": 3595,
      "zistas": 3596,
      "zento": 3597,
      "Ġdra": 3598,
      "Ġmoderna": 3599,
      "Ġvun": 3600,
      "Ġaparta": 3601,
      "Ġeldono": 3602,
      "Ġtemoj": 3603,
      "Ġinternaciaj": 3604,
      "Ġspeciala": 3605,
      "ĠKris": 3606,
      "tuga": 3607,
      "lante": 3608,
      "ĠrenkontiÄĿo": 3609,
      "Ġsurpri": 3610,
      "Ġpied": 3611,
      "vojo": 3612,
      "Ġescep": 3613,
      "Ġankau": 3614,
      "terio": 3615,
      "ĠIM": 3616,
      "Ġurbon": 3617,
      "ire": 3618,
      "ĠPra": 3619,
      "tebla": 3620,
      "ĠVa": 3621,
      "Ġ%": 3622,
      "Ġnorda": 3623,
      "ĠIzra": 3624,
      "Ġfundamen": 3625,
      "Asocio": 3626,
      "Ġvivis": 3627,
      "ktu": 3628,
      "Ġlegis": 3629,
      "Ġperfor": 3630,
      "viÄĿo": 3631,
      "ĠAsocio": 3632,
      "Ġinterpre": 3633,
      "Ġfrato": 3634,
      "Ġpunkto": 3635,
      "vena": 3636,
      "Ġokcidenta": 3637,
      "Ġforto": 3638,
      "ĠCe": 3639,
      "ĠWil": 3640,
      "ĨįãĨįãĨįãĨįã": 3641,
      "ĠTer": 3642,
      "Ġkriti": 3643,
      "65": 3644,
      "ĠPlej": 3645,
      "seks": 3646,
      "Ġmort": 3647,
      "Ġretpo": 3648,
      "eca": 3649,
      "mid": 3650,
      "II": 3651,
      "ĠÄĿarden": 3652,
      "taron": 3653,
      "arki": 3654,
      "prenis": 3655,
      "Ġ31": 3656,
      "kcidenta": 3657,
      "Ġkazo": 3658,
      "Ġekzistis": 3659,
      "ĠÄĪeÄ¥": 3660,
      "ĠVarso": 3661,
      "Ġmalsamaj": 3662,
      "lovakio": 3663,
      "Ġpoem": 3664,
      "Ġnaciaj": 3665,
      "ĠAd": 3666,
      "Ġmondon": 3667,
      "Ġekstre": 3668,
      "ĠÄīina": 3669,
      "Ġplurajn": 3670,
      "Ġkunsi": 3671,
      "lok": 3672,
      "Ġpromen": 3673,
      "hon": 3674,
      "Mon": 3675,
      "Ġagra": 3676,
      "Ġlandon": 3677,
      "Äīon": 3678,
      "kolor": 3679,
      "vange": 3680,
      "cent": 3681,
      "Ġadres": 3682,
      "iÄĿinta": 3683,
      "Ġhomaro": 3684,
      "Ġris": 3685,
      "Ġceloj": 3686,
      "keco": 3687,
      "cha": 3688,
      "fen": 3689,
      "Ġhistoria": 3690,
      "Ġdun": 3691,
      "Ġseksa": 3692,
      "Ġmalsan": 3693,
      "san": 3694,
      "cialan": 3695,
      "ĠKio": 3696,
      "Ġvojon": 3697,
      "Ġok": 3698,
      "ĠVen": 3699,
      "mpi": 3700,
      "espon": 3701,
      "Ġkampo": 3702,
      "Ġefektive": 3703,
      "Ġbildoj": 3704,
      "ger": 3705,
      "ĠVal": 3706,
      "meo": 3707,
      "Ġlibron": 3708,
      "Ġuniversita": 3709,
      "Ġduono": 3710,
      "tari": 3711,
      "Re": 3712,
      "her": 3713,
      "ĠAkademio": 3714,
      "ĠEstis": 3715,
      "stre": 3716,
      "ani": 3717,
      "Ġmeti": 3718,
      "ingo": 3719,
      "ĠIKUE": 3720,
      "cor": 3721,
      "ide": 3722,
      "Ġnomas": 3723,
      "formo": 3724,
      "Ġlokaj": 3725,
      "Ho": 3726,
      "tiÄĿi": 3727,
      "Ġmonto": 3728,
      "Ġitala": 3729,
      "Ġkultura": 3730,
      "Ġelektis": 3731,
      "Ġ&": 3732,
      "ĠÂ·": 3733,
      "Inter": 3734,
      "Ġkv": 3735,
      "ĠpreÄĿejo": 3736,
      "ĠMor": 3737,
      "alismo": 3738,
      "ĠKata": 3739,
      "Ġpoe": 3740,
      "zitan": 3741,
      "Ġregionoj": 3742,
      "Ġdipl": 3743,
      "Ġpotenco": 3744,
      "Ġinterkon": 3745,
      "Ġalb": 3746,
      "komuni": 3747,
      "danta": 3748,
      "tiga": 3749,
      "ĠFre": 3750,
      "Ġnordo": 3751,
      "ç¤¼åĮħç¤¼åĮħç¤¼åĮħç¤¼åĮħç¤¼åĮħç¤¼åĮħç¤¼åĮħç¤¼åĮħç¤¼åĮħç¤¼åĮħç¤¼åĮħç¤¼åĮħç¤¼åĮħç¤¼åĮħç¤¼åĮħç¤¼åĮħ": 3752,
      "Ġinfano": 3753,
      "Ġhejm": 3754,
      "Ġpara": 3755,
      "Ġkr": 3756,
      "Ġbestoj": 3757,
      "AntaÅŃ": 3758,
      "Ġbur": 3759,
      "Ġlok": 3760,
      "Ġsupren": 3761,
      "Ġinteralie": 3762,
      "Ġscii": 3763,
      "ÅŃtra": 3764,
      "Ġrifuz": 3765,
      "Ġstatu": 3766,
      "Ġajna": 3767,
      "Ġfabri": 3768,
      "ploj": 3769,
      "lanta": 3770,
      "Ġtrov": 3771,
      "ĠHar": 3772,
      "Ġste": 3773,
      "ĠBrazilo": 3774,
      "cipo": 3775,
      "ens": 3776,
      "vole": 3777,
      "ĠThe": 3778,
      "Ġmateria": 3779,
      "Ġtatu": 3780,
      "igoj": 3781,
      "Ġpremi": 3782,
      "ĠkomenciÄĿis": 3783,
      "Ġbas": 3784,
      "Ġelsen": 3785,
      "ĠâĨĴ": 3786,
      "Äľi": 3787,
      "Ġmortin": 3788,
      "Ġlibere": 3789,
      "38": 3790,
      "vad": 3791,
      "Ġ*": 3792,
      "delo": 3793,
      "Ġsupoz": 3794,
      "60": 3795,
      "Ġreligio": 3796,
      "Ġsp": 3797,
      "Ġinstruis": 3798,
      "Ġmalbona": 3799,
      "loro": 3800,
      "Ġnokto": 3801,
      "litaj": 3802,
      "Ġhavos": 3803,
      "ĠĠĠĠĠĠĠĠ": 3804,
      "ĠCer": 3805,
      "ĠNacia": 3806,
      "28": 3807,
      "Ġalvenis": 3808,
      "Ġtravi": 3809,
      "Ġamik": 3810,
      "Ġuniversitato": 3811,
      "ate": 3812,
      "Ġstaris": 3813,
      "fita": 3814,
      "Ġsenco": 3815,
      "gxo": 3816,
      "logo": 3817,
      "alu": 3818,
      "Ġpostulas": 3819,
      "Ġsinjoro": 3820,
      "Ġkanto": 3821,
      "Ġgxi": 3822,
      "Ġpetas": 3823,
      "Ġliver": 3824,
      "Ġmondmilito": 3825,
      "Ġfig": 3826,
      "Ġkiaj": 3827,
      "Ġekzemplo": 3828,
      "29": 3829,
      "Ġkoncen": 3830,
      "ĠHen": 3831,
      "Ġideon": 3832,
      "ĠKelkaj": 3833,
      "konstru": 3834,
      "ĠJer": 3835,
      "Ġstaras": 3836,
      "Ġkapablas": 3837,
      "vebla": 3838,
      "Ġpastro": 3839,
      "Ġtitolo": 3840,
      "Ġtor": 3841,
      "ĠâĢĺ": 3842,
      "Do": 3843,
      "Ġgh": 3844,
      "ESTO": 3845,
      "ekz": 3846,
      "ĠPola": 3847,
      "Ġvari": 3848,
      "Ġkopi": 3849,
      "ari": 3850,
      "Ġsekvis": 3851,
      "alan": 3852,
      "Ġsh": 3853,
      "Pri": 3854,
      "Ġafi": 3855,
      "ĠÄ¥": 3856,
      "Ġtraj": 3857,
      "Ġmiks": 3858,
      "Ġfojon": 3859,
      "fio": 3860,
      "Ġpetis": 3861,
      "Äīaj": 3862,
      "Ġkil": 3863,
      "Ġfiks": 3864,
      "Ġplane": 3865,
      "Ġkonataj": 3866,
      "Ġ(\"": 3867,
      "istemo": 3868,
      "Ġtermin": 3869,
      "porno": 3870,
      "ĠMultaj": 3871,
      "Ġdistan": 3872,
      "ĠSE": 3873,
      "Ġorienta": 3874,
      "Ġgepatroj": 3875,
      "Ġlumo": 3876,
      "faj": 3877,
      "istemoj": 3878,
      "alajn": 3879,
      "Ġsimbo": 3880,
      "Ġgravan": 3881,
      "Ġmarbor": 3882,
      "Ġplejparte": 3883,
      "ĠAra": 3884,
      "dulo": 3885,
      "Ġsendu": 3886,
      "Ġreto": 3887,
      "done": 3888,
      "Ġpon": 3889,
      "Ġprotes": 3890,
      "Ġinterv": 3891,
      "ĠJan": 3892,
      "loÄĿ": 3893,
      "Ġsignifo": 3894,
      "Ġniajn": 3895,
      "Ġom": 3896,
      "Ġadap": 3897,
      "Ġmallonga": 3898,
      "Ġhelp": 3899,
      "uste": 3900,
      "Ġatribu": 3901,
      "Ġnomita": 3902,
      "Ġteamo": 3903,
      "ĠIS": 3904,
      "Ġmiajn": 3905,
      "Ġhazar": 3906,
      "33": 3907,
      "Ġkvanto": 3908,
      "kal": 3909,
      "Ġatendas": 3910,
      "burg": 3911,
      "Ġsus": 3912,
      "lum": 3913,
      "Ġaviadi": 3914,
      "Ġkresk": 3915,
      "Ġdecido": 3916,
      "Ġanim": 3917,
      "Ġride": 3918,
      "Ġbazo": 3919,
      "Ġflug": 3920,
      "Ġfonto": 3921,
      "Ġsentas": 3922,
      "Ġkategori": 3923,
      "Ġpaci": 3924,
      "kipedia": 3925,
      "bata": 3926,
      "Ġhomaj": 3927,
      "Ġekonomia": 3928,
      "Ġsole": 3929,
      "Ġservo": 3930,
      "Ġeniris": 3931,
      "menta": 3932,
      "Ġformoj": 3933,
      "ĠKam": 3934,
      "Ġkilome": 3935,
      "ĠTre": 3936,
      "ĸĳ": 3937,
      "Ġsuno": 3938,
      "loke": 3939,
      "ulara": 3940,
      "kuti": 3941,
      "Ġmalliber": 3942,
      "Ġeksplo": 3943,
      "Ġgeed": 3944,
      "Ġstabila": 3945,
      "bert": 3946,
      "ĠvoÄīdon": 3947,
      "Ġbirdoj": 3948,
      "oo": 3949,
      "Ġisla": 3950,
      "Ġsimilaj": 3951,
      "ĠGoogle": 3952,
      "Ġdio": 3953,
      "Ġvidu": 3954,
      "Nun": 3955,
      "Ġ+": 3956,
      "ĠLan": 3957,
      "Ġnomis": 3958,
      "Ġeklezio": 3959,
      "Ġspeciale": 3960,
      "Ġspor": 3961,
      "kurso": 3962,
      "Ġcerta": 3963,
      "Ð¾Ð": 3964,
      "ĠOrgani": 3965,
      "ĠPIV": 3966,
      "ĠOn": 3967,
      "Ġmalrapi": 3968,
      "Ġevidente": 3969,
      "ĠScien": 3970,
      "ĠnomiÄĿas": 3971,
      "Ar": 3972,
      "dovi": 3973,
      "Ġarto": 3974,
      "Ġesperant": 3975,
      "Ġrilatas": 3976,
      "Ġkalku": 3977,
      "Ġprovis": 3978,
      "ĠÄīambro": 3979,
      "ĠBur": 3980,
      "ĠFESTO": 3981,
      "ÄĿen": 3982,
      "igar": 3983,
      "ĠÅĿanÄĿi": 3984,
      "Ġteori": 3985,
      "Ġakceptis": 3986,
      "Ġplez": 3987,
      "leto": 3988,
      "plena": 3989,
      "ĠNova": 3990,
      "Ġekle": 3991,
      "ligita": 3992,
      "Ġproduktoj": 3993,
      "Ġstilo": 3994,
      "kva": 3995,
      "Ġrecipro": 3996,
      "Ġdefini": 3997,
      "Ġkonfir": 3998,
      "Ġnigra": 3999,
      "!!": 4000,
      "ĠÄīielo": 4001,
      "ĠVil": 4002,
      "lone": 4003,
      "Ġkonsci": 4004,
      "lav": 4005,
      "ĠIr": 4006,
      "ĠSoci": 4007,
      "tara": 4008,
      "net": 4009,
      "Ġproksima": 4010,
      "Ġsup": 4011,
      "ĠÄ¤": 4012,
      "Ġmanko": 4013,
      "Ġkonfes": 4014,
      "ĠPrin": 4015,
      "Ġerar": 4016,
      "VA": 4017,
      "DE": 4018,
      "Ġlabori": 4019,
      "Ġepisko": 4020,
      "Ã³n": 4021,
      "inaj": 4022,
      "ĠFun": 4023,
      "kulturo": 4024,
      "kalo": 4025,
      "Ġtekston": 4026,
      "ĠvojaÄĿ": 4027,
      "Ġmetis": 4028,
      "Ġsudo": 4029,
      "Ġfaros": 4030,
      "Ġkunveno": 4031,
      "ĠAzio": 4032,
      "bun": 4033,
      "Ġmilit": 4034,
      "ĠSve": 4035,
      "tana": 4036,
      "tenas": 4037,
      "ĠNia": 4038,
      "ĠDon": 4039,
      "Ġtrajn": 4040,
      "Ġpronon": 4041,
      "gitaj": 4042,
      "stron": 4043,
      "ĠÅĿablonoj": 4044,
      "pto": 4045,
      "tigitaj": 4046,
      "pola": 4047,
      "Ġsentis": 4048,
      "gal": 4049,
      "ĠKanado": 4050,
      "ĠvizaÄĿo": 4051,
      "Äīam": 4052,
      "Ġplimulto": 4053,
      "Ġpolitikaj": 4054,
      "ĠantaÅŃen": 4055,
      "Ġhistori": 4056,
      "Ġasocioj": 4057,
      "Ġfoto": 4058,
      "ila": 4059,
      "ĠGre": 4060,
      "ĠVla": 4061,
      "paÄĿo": 4062,
      "Ġdemandoj": 4063,
      "fran": 4064,
      "Ġinterna": 4065,
      "70": 4066,
      "Ġordo": 4067,
      "ĠÄ´": 4068,
      "Ġscienco": 4069,
      "Ġenke": 4070,
      "Ġ60": 4071,
      "35": 4072,
      "Ġreta": 4073,
      "Ġsenpa": 4074,
      "aniere": 4075,
      "loko": 4076,
      "ĠBul": 4077,
      "Ġrimarkis": 4078,
      "Ã¨": 4079,
      "ĠDua": 4080,
      "KOKOKOKOKOKOKOKO": 4081,
      "Ġvic": 4082,
      "baze": 4083,
      "Ġabso": 4084,
      "ĠMaro": 4085,
      "Ġado": 4086,
      "ĠCom": 4087,
      "ĠâĢ¦": 4088,
      "fiko": 4089,
      "ĠEklezio": 4090,
      "Ġdevenas": 4091,
      "ĠmonaÄ¥": 4092,
      "Ġpensi": 4093,
      "Ġkapon": 4094,
      "Ġlogi": 4095,
      "Ġsalu": 4096,
      "bable": 4097,
      "Ġiel": 4098,
      "Ġripo": 4099,
      "Ġblanka": 4100,
      "Ġkonstitu": 4101,
      "Ġafri": 4102,
      "Ġantikva": 4103,
      "199": 4104,
      "ese": 4105,
      "get": 4106,
      "fono": 4107,
      "ĠPlone": 4108,
      "ĠÄľia": 4109,
      "ĠVir": 4110,
      "Ġplibonigi": 4111,
      "Ġminutoj": 4112,
      "Ġalie": 4113,
      "Ġsemajno": 4114,
      "ĠVo": 4115,
      "Ġaktiva": 4116,
      "Ġorganizo": 4117,
      "Ġfondita": 4118,
      "No": 4119,
      "wski": 4120,
      "Ġuzantoj": 4121,
      "ĠCentra": 4122,
      "ĠPaÅŃ": 4123,
      "ĠloÄĿis": 4124,
      "Ġmedic": 4125,
      "Ġsekva": 4126,
      "ĠMeksi": 4127,
      "Ġdudek": 4128,
      "EL": 4129,
      "tadon": 4130,
      "Ġgazeto": 4131,
      "Ġmalmultaj": 4132,
      "Ġenme": 4133,
      "Ġfesto": 4134,
      "Ġuzataj": 4135,
      "Ġ2004": 4136,
      "Ġaktiv": 4137,
      "Ġpropagan": 4138,
      "Ġvivi": 4139,
      "Ġprizor": 4140,
      "Ġsove": 4141,
      "Ġprezenti": 4142,
      "XX": 4143,
      "RO": 4144,
      "ĠLas": 4145,
      "Ġpriva": 4146,
      "ĠÄīie": 4147,
      "Ġmanier": 4148,
      "Ġlinio": 4149,
      "__": 4150,
      "eton": 4151,
      "ĠNederlando": 4152,
      "\")": 4153,
      "ĠVor": 4154,
      "emaj": 4155,
      "Ġspaco": 4156,
      "ĠÄīas": 4157,
      "Ġtrovos": 4158,
      "miÄĿis": 4159,
      "sur": 4160,
      "Ġmovi": 4161,
      "ĠpaÄĿon": 4162,
      "ĠTe": 4163,
      "ĠTu": 4164,
      "ĠvoÄīo": 4165,
      "Ġtelefon": 4166,
      "Ġlingv": 4167,
      "ĠUkra": 4168,
      "04": 4169,
      "Ġapli": 4170,
      "igh": 4171,
      "Ġjudoj": 4172,
      "Ġfre": 4173,
      "NU": 4174,
      "ĠAÅŃstra": 4175,
      "diÄĿo": 4176,
      "Ġpordo": 4177,
      "Ġjaron": 4178,
      "fil": 4179,
      "ĠnaÅŃ": 4180,
      "sub": 4181,
      "Ġprecize": 4182,
      "Ġmatema": 4183,
      "Ġrekla": 4184,
      "ĠinterÅĿan": 4185,
      "ĠFrancis": 4186,
      "cado": 4187,
      "Ġtim": 4188,
      "kante": 4189,
      "Ġdiale": 4190,
      "Ġreferen": 4191,
      "logiaj": 4192,
      "kolo": 4193,
      "ĠDom": 4194,
      "Ġdesegn": 4195,
      "Ġjarde": 4196,
      "Ġaferojn": 4197,
      "ĠIMG": 4198,
      "jun": 4199,
      "ĠKrom": 4200,
      "ordin": 4201,
      "Tio": 4202,
      "Ġkler": 4203,
      "ranta": 4204,
      "Ġfilino": 4205,
      "Ġrelative": 4206,
      "que": 4207,
      "Ġsociaj": 4208,
      "glo": 4209,
      "Ġeviti": 4210,
      "ds": 4211,
      "Ġgaran": 4212,
      "Ġjarcentoj": 4213,
      "Ġproponis": 4214,
      "ĠKul": 4215,
      "Ġsk": 4216,
      "rom": 4217,
      "nask": 4218,
      "Ġpermesas": 4219,
      "Ġfacila": 4220,
      "gor": 4221,
      "Ġsignifon": 4222,
      "Ġmeri": 4223,
      "estas": 4224,
      "Ali": 4225,
      "Ġankaux": 4226,
      "Ġkreita": 4227,
      "ÄĿaro": 4228,
      "ĠCon": 4229,
      "Ġfaru": 4230,
      "ĠRen": 4231,
      "vantaj": 4232,
      "ĠaÄĿo": 4233,
      "inde": 4234,
      "Ġtransfor": 4235,
      "onojn": 4236,
      "Ġmedio": 4237,
      "Ġelektita": 4238,
      "ÅĿe": 4239,
      "polo": 4240,
      "Åľan": 4241,
      "traÄµo": 4242,
      "Ġtasko": 4243,
      "Ġforlasis": 4244,
      "Ġtransdon": 4245,
      "Ġago": 4246,
      "Ġhelpas": 4247,
      "tle": 4248,
      "ĠÅĿo": 4249,
      "ĠÅĿar": 4250,
      "Ġrigard": 4251,
      "Ġarm": 4252,
      "aten": 4253,
      "ner": 4254,
      "Ġalte": 4255,
      "Ĩĳ": 4256,
      "trado": 4257,
      "Ġtagojn": 4258,
      "??": 4259,
      "Ġdevos": 4260,
      "Ġprofesoro": 4261,
      "estis": 4262,
      "kodo": 4263,
      "Ġavanta": 4264,
      "Ġcxe": 4265,
      "Ġvizitan": 4266,
      "Ġkomita": 4267,
      "Ġkonsideras": 4268,
      "Ġfren": 4269,
      "Ġesprimo": 4270,
      "ĠSvislando": 4271,
      "bol": 4272,
      "erojn": 4273,
      "tag": 4274,
      "Ġproduktado": 4275,
      "ksim": 4276,
      "Ġskribas": 4277,
      "ĠStu": 4278,
      "karo": 4279,
      "Ġcxiuj": 4280,
      "vitaj": 4281,
      "pres": 4282,
      "Ġlerno": 4283,
      "Per": 4284,
      "ĠÄµe": 4285,
      "Ġemo": 4286,
      "Ġprefere": 4287,
      "ĠorganizaÄµo": 4288,
      "grupo": 4289,
      "ĠCor": 4290,
      "Ġrevolucio": 4291,
      "ĠKe": 4292,
      "Ġromano": 4293,
      "Ġabun": 4294,
      "kulp": 4295,
      "tivoj": 4296,
      "Ġstrate": 4297,
      "Ġmetodo": 4298,
      "Ġvig": 4299,
      "ĠKion": 4300,
      "Ġvidpunkto": 4301,
      "naci": 4302,
      "Ġprodukti": 4303,
      "Ġdin": 4304,
      "Ġspecio": 4305,
      "ĠFili": 4306,
      "ÅĻ": 4307,
      "igni": 4308,
      "Ġmonda": 4309,
      "194": 4310,
      "Ġmeta": 4311,
      "Ġpil": 4312,
      "ment": 4313,
      "Ġperdis": 4314,
      "ston": 4315,
      "plu": 4316,
      "Ġsubtenas": 4317,
      "ĠPla": 4318,
      "ĠKongres": 4319,
      "Ġinformo": 4320,
      "Ġnas": 4321,
      "nova": 4322,
      "Ġaero": 4323,
      "dori": 4324,
      "Ġhistorion": 4325,
      "Ġekzempl": 4326,
      "ĠFer": 4327,
      "ĠeÅŃropa": 4328,
      "Ġokazo": 4329,
      "ĠUz": 4330,
      "Ġrajton": 4331,
      "Ġtr": 4332,
      "zias": 4333,
      "Ġoriginala": 4334,
      "Ġneder": 4335,
      "Ġrilato": 4336,
      "Tamen": 4337,
      "dr": 4338,
      "Ġsoli": 4339,
      "Ġanglan": 4340,
      "Ġpropraj": 4341,
      "para": 4342,
      "31": 4343,
      "UTC": 4344,
      "tiri": 4345,
      "Ġhumi": 4346,
      "iÄĿu": 4347,
      "use": 4348,
      "Ġ35": 4349,
      "Ġpek": 4350,
      "Ġiliajn": 4351,
      "Ġsekvas": 4352,
      "Ġfederacia": 4353,
      "han": 4354,
      "unu": 4355,
      "Ġservoj": 4356,
      "ĠFakte": 4357,
      "Ġhungar": 4358,
      "Ġlatin": 4359,
      "Ġrigardi": 4360,
      "Ġekkon": 4361,
      "Ġakiris": 4362,
      "Ġduan": 4363,
      "Ġspeco": 4364,
      "ĠEsperantujo": 4365,
      "IA": 4366,
      "Mo": 4367,
      "liÄĿis": 4368,
      "Ġminim": 4369,
      "Ġjunaj": 4370,
      "ÄĿanta": 4371,
      "Ġartikolojn": 4372,
      "Ġsupra": 4373,
      "Ġestab": 4374,
      "poli": 4375,
      "Ġkvali": 4376,
      "Ġproblemojn": 4377,
      "tivaj": 4378,
      "line": 4379,
      "Ġtenden": 4380,
      "Ġdeklaris": 4381,
      "Ġsimile": 4382,
      "rako": 4383,
      "âĨĳ": 4384,
      "Ġkomencas": 4385,
      "Ġarbo": 4386,
      "Ġgrandajn": 4387,
      "Ġmuni": 4388,
      "Ġpoeto": 4389,
      "ĠFeder": 4390,
      "ll": 4391,
      "sem": 4392,
      "ĠLito": 4393,
      "Ġaltaj": 4394,
      "ET": 4395,
      "ĠGad": 4396,
      "Ġfondis": 4397,
      "Ġaferon": 4398,
      "we": 4399,
      "ĠeÅŃropaj": 4400,
      "Ġhungara": 4401,
      "ĠLibera": 4402,
      "ĠAÅŃstrio": 4403,
      "Ġekzer": 4404,
      "ĠLudovi": 4405,
      "Ġstul": 4406,
      "Äīu": 4407,
      "Ġromp": 4408,
      "ordina": 4409,
      "ario": 4410,
      "ĠKompreneble": 4411,
      "ĠÄĿusta": 4412,
      "arto": 4413,
      "ĠÅĿtu": 4414,
      "ĠPan": 4415,
      "ĠVia": 4416,
      "Ġtiajn": 4417,
      "lendaj": 4418,
      "Ġapartenis": 4419,
      "Ġvenos": 4420,
      "Ġkomunikado": 4421,
      "Ġ2001": 4422,
      "ste": 4423,
      "Ġhero": 4424,
      "ÅĦ": 4425,
      "Ġservis": 4426,
      "ĠGeor": 4427,
      "sed": 4428,
      "Ġopor": 4429,
      "Ġlibrojn": 4430,
      "Ġrenkontis": 4431,
      "konstan": 4432,
      "iuj": 4433,
      "Ġbul": 4434,
      "ĠEo": 4435,
      "Ġkondam": 4436,
      "EK": 4437,
      "tato": 4438,
      "Ġmemsta": 4439,
      "Ġmonato": 4440,
      "Ġpatrolita": 4441,
      "aja": 4442,
      "Ġsimilas": 4443,
      "Ġdia": 4444,
      "ĠDek": 4445,
      "Ġpardon": 4446,
      "Ġinven": 4447,
      "terojn": 4448,
      "Ġjapana": 4449,
      "ria": 4450,
      "ĠIJ": 4451,
      "Ġrevu": 4452,
      "ĠUnuiÄĿintaj": 4453,
      "36": 4454,
      "Ġner": 4455,
      "Ġkonstruita": 4456,
      "Ġlito": 4457,
      "Ġeko": 4458,
      "ĠUson": 4459,
      "Ġcifer": 4460,
      "ÅľanÄĿoj": 4461,
      "];": 4462,
      "ĠTero": 4463,
      "Ġgrun": 4464,
      "Ġdatumoj": 4465,
      "pel": 4466,
      "kiloj": 4467,
      "Ġmaterialo": 4468,
      "Ġdistribu": 4469,
      "Ġdependas": 4470,
      "gata": 4471,
      "kosmo": 4472,
      "ĠEr": 4473,
      "traÄµoj": 4474,
      "Ġrakonto": 4475,
      "Ġtaj": 4476,
      "Jes": 4477,
      "Ġindikas": 4478,
      "Ġkontrolendaj": 4479,
      "ciklo": 4480,
      "valo": 4481,
      "gion": 4482,
      "tional": 4483,
      "bil": 4484,
      "Ġklin": 4485,
      "Ġlingvis": 4486,
      "dy": 4487,
      "Ġpopulara": 4488,
      "nlando": 4489,
      "ĠKos": 4490,
      "Ġligita": 4491,
      "Ġanimo": 4492,
      "Ġmirin": 4493,
      "Ġghi": 4494,
      "ulis": 4495,
      "Ġproces": 4496,
      "Ġakcepti": 4497,
      "Ġfajro": 4498,
      "Ġinstr": 4499,
      "tivalo": 4500,
      "Ġtrakta": 4501,
      "Ġnomi": 4502,
      "Ġeventoj": 4503,
      "OR": 4504,
      "ĠÅĿanÄĿoj": 4505,
      "ĠAmi": 4506,
      "ĠHon": 4507,
      "Ġkoloni": 4508,
      "meto": 4509,
      "bara": 4510,
      "tic": 4511,
      "Ġebligas": 4512,
      "Ġtrejn": 4513,
      "Ġsoldatoj": 4514,
      "Ġsekre": 4515,
      "Le": 4516,
      "ĠneÅŃtra": 4517,
      "ismaj": 4518,
      "igante": 4519,
      "Ġkreas": 4520,
      "Ġkorespon": 4521,
      "ĠnaskiÄĿ": 4522,
      "kus": 4523,
      "Ġetern": 4524,
      "Ġjapan": 4525,
      "tuno": 4526,
      "Ġneniel": 4527,
      "ĠKonsilio": 4528,
      "!\"": 4529,
      "ĠTom": 4530,
      "ĠAt": 4531,
      "ordi": 4532,
      "Ġapu": 4533,
      "Ġscienca": 4534,
      "har": 4535,
      "Ġredu": 4536,
      "Ġkunven": 4537,
      "Ġkompare": 4538,
      "kiu": 4539,
      "Ġsango": 4540,
      "tikan": 4541,
      "Ġfron": 4542,
      "esa": 4543,
      "ĠKore": 4544,
      "ĠUnua": 4545,
      "kaÄµo": 4546,
      "Esperan": 4547,
      "Ġblin": 4548,
      "Ġmus": 4549,
      "ĠreÄĿi": 4550,
      "Ġklaso": 4551,
      "Ġdezer": 4552,
      "erotika": 4553,
      "Ġopinio": 4554,
      "leg": 4555,
      "ue": 4556,
      "eme": 4557,
      "Ġurba": 4558,
      "Ġjunuloj": 4559,
      "ĠVarsovio": 4560,
      "ĠAliaj": 4561,
      "ĠGi": 4562,
      "ĠÅĿajnis": 4563,
      "Ġesprimi": 4564,
      "ĠNacioj": 4565,
      "Ġtermino": 4566,
      "Ġmanif": 4567,
      "Ġkvi": 4568,
      "Ġeksperi": 4569,
      "ĠPartio": 4570,
      "lap": 4571,
      "bulo": 4572,
      "Ġstudentoj": 4573,
      "eso": 4574,
      "ĠTut": 4575,
      "kime": 4576,
      "Ġuzita": 4577,
      "ĠÅĿipo": 4578,
      "Ġfide": 4579,
      "Ġneniun": 4580,
      "Ġpublikigis": 4581,
      "ajo": 4582,
      "ĠGadget": 4583,
      "uran": 4584,
      "Ġposedas": 4585,
      "32": 4586,
      "cho": 4587,
      "Ġokulojn": 4588,
      "ĠEd": 4589,
      "ilkosmo": 4590,
      "Ġhelpis": 4591,
      "Ġfrazo": 4592,
      "Ġdel": 4593,
      "Ġref": 4594,
      "emble": 4595,
      "Ġtradicia": 4596,
      "Ġedukado": 4597,
      "ĠAleksand": 4598,
      "ï»": 4599,
      "Ġadmi": 4600,
      "Ġaktive": 4601,
      "Ġallo": 4602,
      "nabo": 4603,
      "Ġtutmonda": 4604,
      "ĠÅĿip": 4605,
      "Ġreguloj": 4606,
      "kapab": 4607,
      "ld": 4608,
      "Ġsever": 4609,
      "Ġludis": 4610,
      "?âĢĿ": 4611,
      "ente": 4612,
      "Ġludi": 4613,
      "ĠÄľenerala": 4614,
      "Ġrespond": 4615,
      "Ġkantoj": 4616,
      "skij": 4617,
      "braj": 4618,
      "Ġprezento": 4619,
      "Ġkredo": 4620,
      "Ġmanon": 4621,
      "Ġargumen": 4622,
      "Ġregado": 4623,
      "Ġveturi": 4624,
      "Ġsve": 4625,
      "ï»¿": 4626,
      "Ġbrus": 4627,
      "Ġinterparo": 4628,
      "Ġklasi": 4629,
      "damento": 4630,
      "Ġreala": 4631,
      "ĠGermana": 4632,
      "So": 4633,
      "Ġkomunumoj": 4634,
      "kola": 4635,
      "Ġoficiale": 4636,
      "Ġtraduki": 4637,
      "turaj": 4638,
      "ĠMartin": 4639,
      "Ġviziti": 4640,
      "ĠKas": 4641,
      "Ġprobable": 4642,
      "ĠAndre": 4643,
      "landoj": 4644,
      "Ġevento": 4645,
      "nio": 4646,
      "Ġgus": 4647,
      "ĠfariÄĿas": 4648,
      "tinoj": 4649,
      "Ġkonsek": 4650,
      "Ġtatuaj": 4651,
      "manÄĿo": 4652,
      "duloj": 4653,
      "ĠvojaÄĿo": 4654,
      "Ã¢": 4655,
      "ģ£": 4656,
      "ĠInf": 4657,
      "Ġkontroli": 4658,
      "bru": 4659,
      "Ġlatina": 4660,
      "tegorio": 4661,
      "Ġalterna": 4662,
      "kadon": 4663,
      "37": 4664,
      "eja": 4665,
      "ĠImperio": 4666,
      "Äīan": 4667,
      "ĠKubo": 4668,
      "Ġche": 4669,
      "Ġtablo": 4670,
      "Ġkolon": 4671,
      "zitaj": 4672,
      "Ġinstruado": 4673,
      "Ġestonteco": 4674,
      "varo": 4675,
      "Ġlasi": 4676,
      "Ġvero": 4677,
      "sto": 4678,
      "Ġkonven": 4679,
      "gadon": 4680,
      "Ġrezer": 4681,
      "radi": 4682,
      "Kun": 4683,
      "vela": 4684,
      "Ġlaboristoj": 4685,
      "Ġsurbaze": 4686,
      "sojn": 4687,
      "ĠDavid": 4688,
      "Ġkatoli": 4689,
      "zy": 4690,
      "Ġlegas": 4691,
      "gy": 4692,
      "lion": 4693,
      "Ġspirito": 4694,
      "Ġcele": 4695,
      "Ġfalis": 4696,
      "bono": 4697,
      "Ġtend": 4698,
      "Ġmalsam": 4699,
      "Ġbrita": 4700,
      "Ġreprodu": 4701,
      "ĠFra": 4702,
      "Ġkonstrui": 4703,
      "Ġhonor": 4704,
      "ĠMas": 4705,
      "Ġpaf": 4706,
      "Ġlernejoj": 4707,
      "Ġ70": 4708,
      "ĠtroviÄĿis": 4709,
      "Ġvespero": 4710,
      "Ġniv": 4711,
      "Ġfak": 4712,
      "Ġ80": 4713,
      "teto": 4714,
      "Ġcivitanoj": 4715,
      "Ġmalaperis": 4716,
      "ï¼": 4717,
      "ĠJohn": 4718,
      "ĠPatro": 4719,
      "antan": 4720,
      "Ġinstruisto": 4721,
      "Ġsekcio": 4722,
      "Ġkunlaboro": 4723,
      "Ġ)": 4724,
      "78": 4725,
      "lano": 4726,
      "traÅŃ": 4727,
      "Ġformon": 4728,
      "Ġ1990": 4729,
      "aÄĿo": 4730,
      "Ġedzo": 4731,
      "ĠaÅŃtorita": 4732,
      "ley": 4733,
      "Ġkampan": 4734,
      "faco": 4735,
      "kipedi": 4736,
      "Ġkadre": 4737,
      "atan": 4738,
      "Ġcirkonstan": 4739,
      "Ġ188": 4740,
      "Ġian": 4741,
      "Ġintele": 4742,
      "Ġekonomio": 4743,
      "ismon": 4744,
      "Ġlimo": 4745,
      "ÅĿas": 4746,
      "ĠÄīiutage": 4747,
      "Ġmallong": 4748,
      "Ġkonservi": 4749,
      "Ġludo": 4750,
      "Ġrigardas": 4751,
      "formoj": 4752,
      "estroj": 4753,
      "bojn": 4754,
      "Åľi": 4755,
      "Ġaer": 4756,
      "lingvan": 4757,
      "Ġsuges": 4758,
      "ĠLudoviko": 4759,
      "hor": 4760,
      "deno": 4761,
      "Ġpol": 4762,
      "Ġkunme": 4763,
      "Ġdirante": 4764,
      "ĠMoskvo": 4765,
      "gramo": 4766,
      "ĠÅĿat": 4767,
      "alest": 4768,
      "Ġ2002": 4769,
      "Ġtekno": 4770,
      "Ġkelkfoje": 4771,
      "39": 4772,
      "Ġpritra": 4773,
      "Ġsid": 4774,
      "Ġpale": 4775,
      "ĠSpiri": 4776,
      "Ġmalnovaj": 4777,
      "ĠVol": 4778,
      "op": 4779,
      "Ġinspi": 4780,
      "Ġentuzias": 4781,
      "ĀĀĀĀĀĀĀĀ": 4782,
      "Ġekzisto": 4783,
      "Ka": 4784,
      "ĠaranÄĿo": 4785,
      "ĠEle": 4786,
      "cipe": 4787,
      "48": 4788,
      "perni": 4789,
      "uto": 4790,
      "Ġbro": 4791,
      "Ġsova": 4792,
      "Ġat": 4793,
      "ken": 4794,
      "ĠkaÅŃzis": 4795,
      "tataj": 4796,
      "Ãº": 4797,
      "Ðº": 4798,
      "Ġvikti": 4799,
      "Ġpreni": 4800,
      "Ġfing": 4801,
      "Ġpagi": 4802,
      "Ġmodelo": 4803,
      "vanto": 4804,
      "kula": 4805,
      "Ġkredi": 4806,
      "Ġâģ£": 4807,
      "Ġsamaj": 4808,
      "Ġpropono": 4809,
      "Ġantaux": 4810,
      "diskuto": 4811,
      "Ġkampar": 4812,
      "',": 4813,
      "Ġfrua": 4814,
      "ĠSlovakio": 4815,
      "Ġgreka": 4816,
      "ik": 4817,
      "Ġmemoras": 4818,
      "liz": 4819,
      "Bon": 4820,
      "Ġdanke": 4821,
      "Ġrimark": 4822,
      "Ġmorti": 4823,
      "omon": 4824,
      "Ġkonstruado": 4825,
      "Ġkoordina": 4826,
      "sch": 4827,
      "Ġfos": 4828,
      "Ġnura": 4829,
      "Ġpersona": 4830,
      "dol": 4831,
      "Ġutila": 4832,
      "Ġtempera": 4833,
      "usale": 4834,
      "Ġelementoj": 4835,
      "Ġsukceso": 4836,
      "Ġprogramon": 4837,
      "08": 4838,
      "SC": 4839,
      "ĠBonvolu": 4840,
      "Ġrimedoj": 4841,
      "ĠCivi": 4842,
      "Ġpsiko": 4843,
      "ses": 4844,
      "ĉĊ": 4845,
      "teran": 4846,
      "Ġlevi": 4847,
      "Ġludas": 4848,
      "troni": 4849,
      "nov": 4850,
      "Ġinterkonsen": 4851,
      "ĠkonstruaÄµo": 4852,
      "Ġdiman": 4853,
      "ĠÅĿtata": 4854,
      "Ġepi": 4855,
      "Ġliteroj": 4856,
      "Ġebl": 4857,
      "nes": 4858,
      "kaÄµoj": 4859,
      "ĠserÄīi": 4860,
      "Ġceteraj": 4861,
      "ĠNeniu": 4862,
      "ĠEÅŃ": 4863,
      "Pa": 4864,
      "Ġkonvers": 4865,
      "Ġsperto": 4866,
      "ĠKal": 4867,
      "simi": 4868,
      "Ġcxar": 4869,
      "Ġvasta": 4870,
      "iz": 4871,
      "Ġservi": 4872,
      "ĠIns": 4873,
      "Ġpersek": 4874,
      "ĠTion": 4875,
      "Ġefektiv": 4876,
      "german": 4877,
      "Ġkongru": 4878,
      "tm": 4879,
      "Ġliajn": 4880,
      "Ko": 4881,
      "TT": 4882,
      "ĠPu": 4883,
      "preni": 4884,
      "Ġordonis": 4885,
      "und": 4886,
      "gano": 4887,
      "Ġ500": 4888,
      "arko": 4889,
      "ĠOs": 4890,
      "Ġhum": 4891,
      "Ġfina": 4892,
      "Ġakvon": 4893,
      "Ġato": 4894,
      "Ġdomon": 4895,
      "Ġnajbar": 4896,
      "Ġprojektoj": 4897,
      "Ġsidis": 4898,
      "ill": 4899,
      "proksim": 4900,
      "Ġfas": 4901,
      "ĠLabor": 4902,
      "ĠAmeriko": 4903,
      "**": 4904,
      "komun": 4905,
      "Ġhejmo": 4906,
      "bl": 4907,
      "ÄĿejo": 4908,
      "Ġproponi": 4909,
      "Ġsupozas": 4910,
      "Ra": 4911,
      "Ġfervoj": 4912,
      "Ġplenumi": 4913,
      "trankvi": 4914,
      "anon": 4915,
      "ĠInstitu": 4916,
      "Ġevange": 4917,
      "ficejo": 4918,
      "ieraÅŃ": 4919,
      "Ġkreskis": 4920,
      "umis": 4921,
      "Ġgvidis": 4922,
      "del": 4923,
      "ĠKomitato": 4924,
      "ÅĿton": 4925,
      "Ġkompli": 4926,
      "Ġasertas": 4927,
      "iganta": 4928,
      "Ġprogramoj": 4929,
      "ujon": 4930,
      "Ġlingvaj": 4931,
      "pere": 4932,
      "lingve": 4933,
      "Ġfortoj": 4934,
      "zioj": 4935,
      "toso": 4936,
      "âĢľ.": 4937,
      "Ġsistemon": 4938,
      "Ġforigi": 4939,
      "ðŁ": 4940,
      "ardo": 4941,
      "Ġmalkon": 4942,
      "Ġgaranti": 4943,
      "taÄµojn": 4944,
      "Ġdirektoro": 4945,
      "ritaj": 4946,
      "ĠRomo": 4947,
      "Ġtal": 4948,
      "Ma": 4949,
      "Ġlernado": 4950,
      "bera": 4951,
      "Ĥ¬": 4952,
      "Ġdama": 4953,
      "puti": 4954,
      "Ġmuzeo": 4955,
      "lanto": 4956,
      "jet": 4957,
      "stu": 4958,
      "igado": 4959,
      "Ġdifini": 4960,
      "Ġpreferas": 4961,
      "mato": 4962,
      "Â²": 4963,
      "Ġkatolika": 4964,
      "Ġarbaro": 4965,
      "ĠAÅŃstralio": 4966,
      "ĠSovetun": 4967,
      "Ġpal": 4968,
      "Ġgajnis": 4969,
      "kata": 4970,
      "milo": 4971,
      "Ġprezidento": 4972,
      "Ġpriskribo": 4973,
      "Ġkra": 4974,
      "Ġvaloro": 4975,
      "ida": 4976,
      "Ġteo": 4977,
      "Ġbonven": 4978,
      "ministro": 4979,
      "Ġmalalta": 4980,
      "Ġpopol": 4981,
      "Ġknabo": 4982,
      "ĠÅĿiaj": 4983,
      "Ġinformon": 4984,
      "Ġvaria": 4985,
      "ff": 4986,
      "ĠTemas": 4987,
      "Ä´": 4988,
      "ÅĤa": 4989,
      "scien": 4990,
      "Ġestro": 4991,
      "ĠPl": 4992,
      "Ġresti": 4993,
      "rich": 4994,
      "Ġsubteni": 4995,
      "ĠJerusale": 4996,
      "cu": 4997,
      "oras": 4998,
      "ĠUnue": 4999,
      "alojn": 5000,
      "75": 5001,
      "Ġmanojn": 5002,
      "Ġrakontis": 5003,
      "ajnas": 5004,
      "noj": 5005,
      "Ġkonsul": 5006,
      "ny": 5007,
      "Ġklara": 5008,
      "?\"": 5009,
      "ÄĿita": 5010,
      "Ġvizito": 5011,
      "tagme": 5012,
      "fos": 5013,
      "Ġbom": 5014,
      "distoj": 5015,
      "ĠUkrainio": 5016,
      "orita": 5017,
      "aspe": 5018,
      "Ġkvalito": 5019,
      "grafia": 5020,
      "ĠGNU": 5021,
      "ĠSpe": 5022,
      "Ġlernantoj": 5023,
      "Ġtraduk": 5024,
      "Ġ2003": 5025,
      "ĠÎ": 5026,
      "Ġalfab": 5027,
      "ĠKre": 5028,
      "ĠEsperantista": 5029,
      "kcioj": 5030,
      "ĠMond": 5031,
      "ĠPaÅŃlo": 5032,
      "ÃĤ": 5033,
      "Ġobe": 5034,
      "Ġrolo": 5035,
      "EF": 5036,
      "Ġfaritaj": 5037,
      "ham": 5038,
      "ilis": 5039,
      "Ġpovu": 5040,
      "ĠSekve": 5041,
      "Ġnecesa": 5042,
      "Ġblog": 5043,
      "Ġemfa": 5044,
      "68": 5045,
      "teksto": 5046,
      "Ġesen": 5047,
      "Ġvarme": 5048,
      "Ġrakontas": 5049,
      "49": 5050,
      "Ð»": 5051,
      "Ġproblemon": 5052,
      "Ġmuzik": 5053,
      "Ġeventuale": 5054,
      "05": 5055,
      "uris": 5056,
      "Ġdiru": 5057,
      ",\"": 5058,
      "Ã¸": 5059,
      "Ġsocialis": 5060,
      "Ġsekso": 5061,
      "tedra": 5062,
      "Ġideojn": 5063,
      ".:": 5064,
      "Ġtom": 5065,
      "Ġdatre": 5066,
      "Ġbordo": 5067,
      "zion": 5068,
      "posto": 5069,
      "Ġgermanaj": 5070,
      "organi": 5071,
      "Ġbildon": 5072,
      "ĠkuraÄĿ": 5073,
      "45": 5074,
      "rejo": 5075,
      "Ġdemandon": 5076,
      "tz": 5077,
      "kluzi": 5078,
      "Ġsalaj": 5079,
      "ĠFi": 5080,
      "dona": 5081,
      "Ġelspe": 5082,
      "Ġobjekto": 5083,
      "Ġmetro": 5084,
      "66": 5085,
      "Ġares": 5086,
      "cian": 5087,
      "dataj": 5088,
      "Ġnacioj": 5089,
      "ev": 5090,
      "Ġbelaj": 5091,
      "ĠSil": 5092,
      "ĠSuda": 5093,
      "tadis": 5094,
      "estr": 5095,
      "ĠTaj": 5096,
      "Ġklarigi": 5097,
      "saj": 5098,
      "Ġmalfeli": 5099,
      "Ġkastelo": 5100,
      "kloj": 5101,
      "Ġetoso": 5102,
      "Ġlago": 5103,
      "Ġkapti": 5104,
      "09": 5105,
      "kimedia": 5106,
      "likto": 5107,
      "....": 5108,
      "ĠParla": 5109,
      "ĠTrans": 5110,
      "Ġarte": 5111,
      "jan": 5112,
      "Ġski": 5113,
      "Ġwww": 5114,
      "Ġpenso": 5115,
      "ĠaÄīeti": 5116,
      "Â®": 5117,
      "Ġofen": 5118,
      "Ġkonek": 5119,
      "ĠNorda": 5120,
      "Ġsubjek": 5121,
      "ĠHan": 5122,
      "Ġteorio": 5123,
      "Ġforpas": 5124,
      "Ġaspekto": 5125,
      "Ġdifino": 5126,
      "Ġstranga": 5127,
      "dumo": 5128,
      "ego": 5129,
      "Ġkursoj": 5130,
      "Ġfilmoj": 5131,
      "trio": 5132,
      "nun": 5133,
      "granda": 5134,
      "Ġnukle": 5135,
      "Ġgrandega": 5136,
      "emokra": 5137,
      "ÄĿinta": 5138,
      "ĠBan": 5139,
      "Ġdemand": 5140,
      "fron": 5141,
      "Ġfan": 5142,
      "umado": 5143,
      "kejo": 5144,
      "Ġestrar": 5145,
      "Ġsube": 5146,
      "ĠRadio": 5147,
      "zonoj": 5148,
      "spekti": 5149,
      "ĠaÅŃd": 5150,
      "ĠLingvo": 5151,
      "lun": 5152,
      "Ġizo": 5153,
      "riko": 5154,
      "digis": 5155,
      "Ġvento": 5156,
      "Ġaldonis": 5157,
      "Ġscio": 5158,
      "06": 5159,
      "Nu": 5160,
      "Ġprokla": 5161,
      "Fran": 5162,
      "maniere": 5163,
      "Ġeliris": 5164,
      "gel": 5165,
      "ald": 5166,
      "Ġflugi": 5167,
      "berto": 5168,
      "ĠaÅŃtoma": 5169,
      "Ġverda": 5170,
      "Ġkonsideri": 5171,
      "Ġrekta": 5172,
      "LID": 5173,
      "Ġchar": 5174,
      "pornografio": 5175,
      "Ġagri": 5176,
      "Ġanarki": 5177,
      "Ġpuri": 5178,
      "Ġprilabor": 5179,
      "Ġtradicio": 5180,
      "Ġtrapas": 5181,
      "Ġfratoj": 5182,
      "Ġkonsentas": 5183,
      "kel": 5184,
      "ĠSovetunio": 5185,
      "Ġgo": 5186,
      "pado": 5187,
      "Ġpartopreno": 5188,
      "Ã§": 5189,
      "Äµe": 5190,
      "ĠFolio": 5191,
      "Ġgermanoj": 5192,
      "lioj": 5193,
      "Ġkomputilo": 5194,
      "tago": 5195,
      "ers": 5196,
      "Ġmaltrankvi": 5197,
      "fgan": 5198,
      "fas": 5199,
      "Ġcon": 5200,
      "Ġstrukturo": 5201,
      "Ġdeparte": 5202,
      "Ġsemajnoj": 5203,
      "Ġraporto": 5204,
      "ĠBelgio": 5205,
      ",âĢĿ": 5206,
      "ĠVoj": 5207,
      "ĠÅĿian": 5208,
      "uze": 5209,
      "Ġpeto": 5210,
      "Ġkonsiderata": 5211,
      "Ġprofunde": 5212,
      "Ġlongaj": 5213,
      "Ġorto": 5214,
      "Ġmeza": 5215,
      "Ġkoncerna": 5216,
      "ĠBlan": 5217,
      "ĠaÅŃskulti": 5218,
      "intan": 5219,
      "Ġfunkcio": 5220,
      "ĠJor": 5221,
      "Ġco": 5222,
      "Ġinterreto": 5223,
      "tastro": 5224,
      "tig": 5225,
      "ĠMonda": 5226,
      "Ġunun": 5227,
      "glute": 5228,
      "disto": 5229,
      "Äīismo": 5230,
      "vÃ¡": 5231,
      "Ġkazoj": 5232,
      "Ġornam": 5233,
      "ĠiÄĿas": 5234,
      "Ġlernas": 5235,
      "Ġlasis": 5236,
      "ĠDia": 5237,
      "Ġfinis": 5238,
      "ĠÅĿanÄĿo": 5239,
      "Ġmetroj": 5240,
      "daÅŃrinde": 5241,
      "ĠRos": 5242,
      "ĠKomisiono": 5243,
      "Ġfiloj": 5244,
      "Ġprodukta": 5245,
      "Ġinfluo": 5246,
      "ĠPoli": 5247,
      "embleo": 5248,
      "ktor": 5249,
      "Ġindustrio": 5250,
      "Ġplenkres": 5251,
      "keto": 5252,
      "ĠleÄĿ": 5253,
      "Ġkomerco": 5254,
      "Pre": 5255,
      "Ġletero": 5256,
      "klas": 5257,
      "ĠAnton": 5258,
      "Ġunuafoje": 5259,
      "Ġsent": 5260,
      "Ġkolor": 5261,
      "bli": 5262,
      "vorte": 5263,
      "ĠES": 5264,
      "ĠSem": 5265,
      "maniero": 5266,
      "ministra": 5267,
      "RA": 5268,
      "Ġpasis": 5269,
      "ĠChar": 5270,
      "Ġinternacian": 5271,
      "Ġdeba": 5272,
      "igra": 5273,
      "Ġsolvo": 5274,
      "leo": 5275,
      "Ġstudis": 5276,
      "}}": 5277,
      "ĠserÄīas": 5278,
      "VALID": 5279,
      "ĠBona": 5280,
      "ĠCas": 5281,
      "Ġmalsano": 5282,
      "âĢľ,": 5283,
      "angle": 5284,
      "âĪŀâĪŀâĪŀâĪŀ": 5285,
      "Ġama": 5286,
      "peten": 5287,
      "mili": 5288,
      "Ġlau": 5289,
      "ĠTro": 5290,
      "Ġdeziris": 5291,
      "Ġkonkre": 5292,
      "Ġlibereco": 5293,
      "centro": 5294,
      "Ġkondukis": 5295,
      "Ili": 5296,
      "ĠBarato": 5297,
      "Sur": 5298,
      "regis": 5299,
      "Ġree": 5300,
      "mame": 5301,
      "Ġskan": 5302,
      "Ġenergio": 5303,
      "ĠHam": 5304,
      "Ġekskur": 5305,
      "Ġnacio": 5306,
      "kcep": 5307,
      "Ġstatis": 5308,
      "vineo": 5309,
      "Ġprovo": 5310,
      "ubile": 5311,
      "Ġkonk": 5312,
      "Ġsil": 5313,
      "Ġpublikigita": 5314,
      "tempaj": 5315,
      "Ġeki": 5316,
      "Ġdokumentoj": 5317,
      "Ġpura": 5318,
      "Ġvul": 5319,
      "ĠMad": 5320,
      "ito": 5321,
      "ĠsufiÄīas": 5322,
      "Ġlegantoj": 5323,
      "irkaÅŃ": 5324,
      "kole": 5325,
      "Ġorganizado": 5326,
      "ĠCentro": 5327,
      "Ġfilozofio": 5328,
      "ĠÄīapi": 5329,
      "ĠCetere": 5330,
      "ÅĿoj": 5331,
      "Ġkreskas": 5332,
      "ÃŃn": 5333,
      "Ġtempoj": 5334,
      "des": 5335,
      "Ġkoti": 5336,
      "Ġspecialan": 5337,
      "Ġaltan": 5338,
      "dinto": 5339,
      "Ġplia": 5340,
      "Ġmalbone": 5341,
      "muzi": 5342,
      "Äīuro": 5343,
      "Ġvolo": 5344,
      "AnkaÅŃ": 5345,
      "Ġredaktoro": 5346,
      "Ġiama": 5347,
      "naÅŃ": 5348,
      "Ġsistemoj": 5349,
      "ĠriÄīa": 5350,
      "ef": 5351,
      "Ġrespondo": 5352,
      "ĠEkzistas": 5353,
      "ÄīiÄīo": 5354,
      "Ġrifu": 5355,
      "veblas": 5356,
      "tikon": 5357,
      "Ġebla": 5358,
      "Ġkomitato": 5359,
      "amikoj": 5360,
      "Ġsekretario": 5361,
      "Ġkresko": 5362,
      "ĠBerlino": 5363,
      "ĠFinnlando": 5364,
      "Äīer": 5365,
      "Ġpartn": 5366,
      "Ġusonaj": 5367,
      "Ġaven": 5368,
      "Ġprocezo": 5369,
      "Ġalven": 5370,
      "Ġfirmao": 5371,
      "!âĢĿ": 5372,
      "TE": 5373,
      "Ġvideo": 5374,
      "ĠCa": 5375,
      "Ġatendis": 5376,
      "Ġdomoj": 5377,
      "ĠKarlo": 5378,
      "ĠÅĿlos": 5379,
      "lecon": 5380,
      "Ġatenton": 5381,
      "Ġlud": 5382,
      "Ġekstera": 5383,
      "ĠmanÄĿi": 5384,
      "eblan": 5385,
      "Ġsolvi": 5386,
      "Ġton": 5387,
      "Ġsude": 5388,
      "ĠfraÅŃ": 5389,
      "Ġsekvaj": 5390,
      "Ġrespondi": 5391,
      "Ġministro": 5392,
      "Ġglor": 5393,
      "kultura": 5394,
      "Ġrajtojn": 5395,
      "Ġprivata": 5396,
      "Ġpapo": 5397,
      "Ġmira": 5398,
      "Ġ1980": 5399,
      "Ġfamilioj": 5400,
      "takto": 5401,
      "Ġsendube": 5402,
      "Ġdirekto": 5403,
      "Ekde": 5404,
      "IM": 5405,
      "ĠpoÅĿt": 5406,
      "Ġbor": 5407,
      "ĠDos": 5408,
      "LA": 5409,
      "tivan": 5410,
      "ĠHin": 5411,
      "Ġkontakto": 5412,
      "Ġpaper": 5413,
      "Ġbaza": 5414,
      "Ġie": 5415,
      "ĠKri": 5416,
      "akti": 5417,
      "Ġtradukis": 5418,
      "sal": 5419,
      "mante": 5420,
      "gxis": 5421,
      "Ġsinsek": 5422,
      "bus": 5423,
      "Ġ45": 5424,
      "Ġtipo": 5425,
      "dano": 5426,
      "Ġbonajn": 5427,
      "Ġhejmen": 5428,
      "ĠLondono": 5429,
      "hal": 5430,
      "ĠPalest": 5431,
      "ĠKato": 5432,
      "ĠÄīiujare": 5433,
      "Ġfotoj": 5434,
      "ong": 5435,
      "prezidanto": 5436,
      "ich": 5437,
      "Ġokazon": 5438,
      "dinda": 5439,
      "fluti": 5440,
      "Ġfri": 5441,
      "teni": 5442,
      "Ġpeti": 5443,
      "ĠJar": 5444,
      "keo": 5445,
      "Ġklubo": 5446,
      "kras": 5447,
      "lau": 5448,
      "Ġhelpon": 5449,
      "Ġvaste": 5450,
      "peto": 5451,
      "iojn": 5452,
      "tage": 5453,
      "faci": 5454,
      "Ġuzante": 5455,
      "Ġplantoj": 5456,
      "Ġparko": 5457,
      "Ġsuspe": 5458,
      "Ġbrazi": 5459,
      "Ġakade": 5460,
      "elojn": 5461,
      "Ġbud": 5462,
      "Ġmuro": 5463,
      "Ġrapida": 5464,
      "Ġforiris": 5465,
      "tigon": 5466,
      "pelo": 5467,
      "tnas": 5468,
      "Ġkonver": 5469,
      "Ġtiama": 5470,
      "Ġmalsupren": 5471,
      "pernity": 5472,
      "44": 5473,
      "ĠâĢķ": 5474,
      "Ġfontoj": 5475,
      "Ġpolico": 5476,
      "tradu": 5477,
      "ĠVinilkosmo": 5478,
      "ĠÄĿisda": 5479,
      "Ġakceptas": 5480,
      "INVALID": 5481,
      "Ġkodo": 5482,
      "ĠOrienta": 5483,
      "Ġsubpre": 5484,
      "Ġkomerca": 5485,
      "ĠMedi": 5486,
      "Ġpolaj": 5487,
      "ajno": 5488,
      "menton": 5489,
      "landanoj": 5490,
      "59": 5491,
      "alistoj": 5492,
      "Ġplifor": 5493,
      "ĠUS": 5494,
      "ĠSvedio": 5495,
      "Ġteror": 5496,
      "Ġkoncepto": 5497,
      "Ġdispu": 5498,
      "Ġbazita": 5499,
      "Ġbus": 5500,
      "TA": 5501,
      "Ġnombron": 5502,
      "tinda": 5503,
      "ĠBab": 5504,
      "Ġeldonita": 5505,
      "Ġregule": 5506,
      "gro": 5507,
      "Ġparen": 5508,
      "ĠIrlando": 5509,
      "Ġprincipo": 5510,
      "Ġkialoj": 5511,
      "Ġita": 5512,
      "Ġkatal": 5513,
      "ink": 5514,
      "ĠÄĪio": 5515,
      "Ġsekvan": 5516,
      "ĠfiniÄĿis": 5517,
      "Ġmerka": 5518,
      "Ġregas": 5519,
      "Ġ90": 5520,
      "sko": 5521,
      "Ġuzon": 5522,
      "Ġreligia": 5523,
      "ÅĿuti": 5524,
      "Ġbiblioteko": 5525,
      "Ġfortika": 5526,
      "usta": 5527,
      "ĠBro": 5528,
      "Ġpliaj": 5529,
      "vero": 5530,
      "Ġ---": 5531,
      "Ġkred": 5532,
      "UN": 5533,
      "Ġanoj": 5534,
      "ĠArgen": 5535,
      "letoj": 5536,
      "Ġsento": 5537,
      "Ġtradukoj": 5538,
      "Ġmall": 5539,
      "Ġarboj": 5540,
      "Ġpartioj": 5541,
      "PL": 5542,
      "ĠCerte": 5543,
      "emi": 5544,
      "Ġfort": 5545,
      "Ġatingas": 5546,
      "elonge": 5547,
      "Ġdiferenco": 5548,
      "ÄĪar": 5549,
      "Ġregno": 5550,
      "Mia": 5551,
      "gaÅŃ": 5552,
      "Ġkron": 5553,
      "nalo": 5554,
      "antaÅŃ": 5555,
      "pensi": 5556,
      "sistemo": 5557,
      "Ġdeter": 5558,
      "Ġastron": 5559,
      "ÄĿeni": 5560,
      "bir": 5561,
      "vaÄµoj": 5562,
      "46": 5563,
      "ĠEdu": 5564,
      "pol": 5565,
      "Ġimperiestro": 5566,
      "Ġsto": 5567,
      "teo": 5568,
      "ĠantaÅŃaj": 5569,
      "Ġintereso": 5570,
      "Ġkompanio": 5571,
      "Ġalu": 5572,
      "umas": 5573,
      "Ġkombin": 5574,
      "Ġverkita": 5575,
      "giono": 5576,
      "Ġhavu": 5577,
      "ĠIzrael": 5578,
      "Ġkonflik": 5579,
      "Ġserioze": 5580,
      "Ġmalofte": 5581,
      "vetur": 5582,
      "tim": 5583,
      "Ġmiloj": 5584,
      "198": 5585,
      "nis": 5586,
      "Ġdisde": 5587,
      "Ġokazi": 5588,
      "ĠTia": 5589,
      "Ġpartojn": 5590,
      "Je": 5591,
      "79": 5592,
      "igno": 5593,
      "ĠbaziÄĿas": 5594,
      "Ġstaci": 5595,
      "gre": 5596,
      "Ġlaux": 5597,
      "tian": 5598,
      "Ġmarbordo": 5599,
      "Ġsigno": 5600,
      "Ġvenonta": 5601,
      "ster": 5602,
      "Ġbr": 5603,
      "nomo": 5604,
      "Ġligno": 5605,
      "ĠEsperantis": 5606,
      "kcidento": 5607,
      "Ġdeven": 5608,
      "inojn": 5609,
      "ĠTele": 5610,
      "romp": 5611,
      "Ġsubteno": 5612,
      "Sa": 5613,
      "eraj": 5614,
      "picx": 5615,
      "NM": 5616,
      "Ġiru": 5617,
      "55": 5618,
      "Ġarbaroj": 5619,
      "Ġcetere": 5620,
      "ĠaÅŃtoroj": 5621,
      "ĠLitovio": 5622,
      "Ġenspe": 5623,
      "Ġnorde": 5624,
      "Ġmalrapide": 5625,
      "Ġorganizi": 5626,
      "Ġstan": 5627,
      "ÄĪiuj": 5628,
      "Ġbirdo": 5629,
      "Ġtranslok": 5630,
      "Ġkoncerne": 5631,
      "Ġkonstante": 5632,
      "ĠBir": 5633,
      "ĠFri": 5634,
      "Ġkatastro": 5635,
      "zolu": 5636,
      "ĠdaÅŃris": 5637,
      "sper": 5638,
      "cido": 5639,
      "Ġpersone": 5640,
      "ĠhaÅŃ": 5641,
      "Ġposta": 5642,
      "Ġjardekoj": 5643,
      "ĠaliÄĿis": 5644,
      "set": 5645,
      "ĠruÄĿa": 5646,
      "Su": 5647,
      "Ġporde": 5648,
      "Ġdialo": 5649,
      "Ġrestor": 5650,
      "Ġmalhe": 5651,
      "ira": 5652,
      "ĠsufiÄī": 5653,
      "ido": 5654,
      "Å¾": 5655,
      "dinte": 5656,
      "Ġiujn": 5657,
      "Ġvenkis": 5658,
      "Libera": 5659,
      "ĠEsperantisto": 5660,
      "panoj": 5661,
      "Ja": 5662,
      "Ġadop": 5663,
      "ima": 5664,
      "naskiÄĿis": 5665,
      "cy": 5666,
      "Ġneo": 5667,
      "ĠGer": 5668,
      "mir": 5669,
      "Ġfenestro": 5670,
      "Ġligo": 5671,
      "ziaj": 5672,
      "Ġamaskomuni": 5673,
      "omeno": 5674,
      "Ġpac": 5675,
      "07": 5676,
      "Ġprovas": 5677,
      "fal": 5678,
      "anton": 5679,
      "Ġpej": 5680,
      "bran": 5681,
      "aciaj": 5682,
      "Ġsukcese": 5683,
      "Ġparlamento": 5684,
      "Ġhipo": 5685,
      "gulo": 5686,
      "bab": 5687,
      "Ġsendepende": 5688,
      "Ġreen": 5689,
      "ĠPres": 5690,
      "Ġokazinta": 5691,
      "mpo": 5692,
      "Ġtradukado": 5693,
      "Ġmalsukces": 5694,
      "...]": 5695,
      "Ġdifinita": 5696,
      "Mul": 5697,
      "ĠIJK": 5698,
      "Ġtera": 5699,
      "belo": 5700,
      "Ġprezo": 5701,
      "Ġlongan": 5702,
      "lingvis": 5703,
      "Ġinteli": 5704,
      "Ġprofunda": 5705,
      "bano": 5706,
      "Äīero": 5707,
      "ĠâĤ¬": 5708,
      "Ġhezi": 5709,
      "kau": 5710,
      "Ġparolantoj": 5711,
      "Ġmatene": 5712,
      "Ġpet": 5713,
      "Ta": 5714,
      "Ġkonferenco": 5715,
      "ksoj": 5716,
      "cs": 5717,
      "iras": 5718,
      "farita": 5719,
      "mentojn": 5720,
      "Ġkonis": 5721,
      "Ġkutima": 5722,
      "rum": 5723,
      "Ġlast": 5724,
      "ĠÄīeval": 5725,
      "Ġjuda": 5726,
      "Ġopinion": 5727,
      "kismo": 5728,
      "Ġbre": 5729,
      "Ġsvis": 5730,
      "ĠaÅŃton": 5731,
      "Ġapartaj": 5732,
      "Ġkuracisto": 5733,
      "til": 5734,
      "ĠCol": 5735,
      "Ġkonsekven": 5736,
      "laroj": 5737,
      "tie": 5738,
      "Ġkonstruis": 5739,
      "Ġimperio": 5740,
      "ĠBuda": 5741,
      "time": 5742,
      "ĠNew": 5743,
      "Ġekstere": 5744,
      "ĠMala": 5745,
      "Ġfloroj": 5746,
      "Ġakuz": 5747,
      "Ġdekstra": 5748,
      "Ġkvartalo": 5749,
      "Ġkulturoj": 5750,
      "æľ": 5751,
      "vaÄµo": 5752,
      "Ġmaksim": 5753,
      "Ġaspektas": 5754,
      "Ġ1970": 5755,
      "Ġplanedo": 5756,
      "ekzemple": 5757,
      "52": 5758,
      "Ġorganizoj": 5759,
      "sin": 5760,
      "Ġsemin": 5761,
      "Ġmales": 5762,
      "LO": 5763,
      "Ġkoncernas": 5764,
      "Ġpiedoj": 5765,
      "ktitaj": 5766,
      "ÄĪiu": 5767,
      "AM": 5768,
      "lara": 5769,
      "Ġformas": 5770,
      "Ġhomon": 5771,
      "buo": 5772,
      "ĠAnglio": 5773,
      "Ġate": 5774,
      "ðŁĺ": 5775,
      "tora": 5776,
      "ĠÅĿtat": 5777,
      "ĠTor": 5778,
      "Ġdonita": 5779,
      "90": 5780,
      "ĠGrek": 5781,
      "aux": 5782,
      "Ġinstitucioj": 5783,
      "lismo": 5784,
      "ameriko": 5785,
      "Pli": 5786,
      "Ġemin": 5787,
      "iki": 5788,
      "Ġemas": 5789,
      "Ġgaj": 5790,
      "Ġdisvolvi": 5791,
      "ĠLen": 5792,
      "Ġlimigita": 5793,
      "Ġkialo": 5794,
      "Ġregion": 5795,
      "Ġbatal": 5796,
      "ĠpaÅŃ": 5797,
      "Ġretro": 5798,
      "ĠMer": 5799,
      "ĠII": 5800,
      "Ġlastan": 5801,
      "Ġrecen": 5802,
      "Ġvidos": 5803,
      "Ġpers": 5804,
      "Ġpretas": 5805,
      "Ġvenko": 5806,
      "bita": 5807,
      "Ġpul": 5808,
      "Ġpilgri": 5809,
      "instru": 5810,
      "Ġkolekto": 5811,
      "ĠOkcidenta": 5812,
      "Ġfremdaj": 5813,
      "libroj": 5814,
      "ĠBre": 5815,
      "Ġrenov": 5816,
      "pin": 5817,
      "Ġaliflanke": 5818,
      "ĠaliÄĿ": 5819,
      "Am": 5820,
      "Ġapero": 5821,
      "ĠÅĿatus": 5822,
      "anojn": 5823,
      "72": 5824,
      "Ġdokumento": 5825,
      "ĠbedaÅŃrinde": 5826,
      "Ġagoj": 5827,
      "ĠAu": 5828,
      "Ġsxi": 5829,
      "Ġinteg": 5830,
      "ĠÄĪina": 5831,
      "Ġpovo": 5832,
      "viden": 5833,
      "Ġreprezentas": 5834,
      "ĠmalÅĿ": 5835,
      "ĠKategorio": 5836,
      "hat": 5837,
      "servo": 5838,
      "ĠVene": 5839,
      "Ġfut": 5840,
      "ĠVe": 5841,
      "Ġdankas": 5842,
      "ĠMuzeo": 5843,
      "Ġveni": 5844,
      "malpli": 5845,
      "book": 5846,
      "Ġskulp": 5847,
      "Ġkontras": 5848,
      "Ġgub": 5849,
      "Ġgravajn": 5850,
      "vajo": 5851,
      "Ġflanke": 5852,
      "Ġtekstojn": 5853,
      "Ġliston": 5854,
      "baro": 5855,
      "Ġpercep": 5856,
      "ĠTago": 5857,
      "Ġoportun": 5858,
      "Gran": 5859,
      "ĠOl": 5860,
      "iu": 5861,
      "zaÄµoj": 5862,
      "ieron": 5863,
      "forme": 5864,
      "Ġmaljuna": 5865,
      "Montri": 5866,
      "Ġrilatojn": 5867,
      "Ġdistingi": 5868,
      "http": 5869,
      "ĠvizaÄĿ": 5870,
      "Ġatendi": 5871,
      "Ġgxin": 5872,
      "ĠÄīeestis": 5873,
      "Dan": 5874,
      "porto": 5875,
      "hr": 5876,
      "Ġmid": 5877,
      "ĠDemokra": 5878,
      "koraÅŃ": 5879,
      "Ġprinco": 5880,
      "ĠaÄīetis": 5881,
      "ĠinaÅŃ": 5882,
      "bicio": 5883,
      "Ġvolonte": 5884,
      "INVALIDINVALID": 5885,
      "Ġkonfuz": 5886,
      "Ġmezo": 5887,
      "Ġricevos": 5888,
      "ĠÅĿanÄĿis": 5889,
      "Ġklasika": 5890,
      "Ġkonflikto": 5891,
      "ãĢ": 5892,
      "Ġkampoj": 5893,
      "Ġkristana": 5894,
      "fika": 5895,
      "ĠkonstruaÄµoj": 5896,
      "vil": 5897,
      "ĠFeli": 5898,
      "Ġhelpos": 5899,
      "ligitaj": 5900,
      "gna": 5901,
      "Ġprun": 5902,
      "ÅĿon": 5903,
      "Ġdemokratio": 5904,
      "Ġpredi": 5905,
      "ejojn": 5906,
      "Ġslova": 5907,
      "igaj": 5908,
      "Ġmalka": 5909,
      "Ġscipo": 5910,
      "Ġkantis": 5911,
      "Kvankam": 5912,
      "Ġ300": 5913,
      "ablono": 5914,
      "Ġabon": 5915,
      "Ġtimo": 5916,
      "Ġkompeten": 5917,
      "Ġdifek": 5918,
      "Ġrapid": 5919,
      "Ġeniri": 5920,
      "Ġintervju": 5921,
      "ĠSame": 5922,
      "cita": 5923,
      "Ġbes": 5924,
      "konsento": 5925,
      "Ġsekureco": 5926,
      "Ø§": 5927,
      "cele": 5928,
      "ĠOficejo": 5929,
      "ĠMeksiko": 5930,
      "Ġkver": 5931,
      "Ġespero": 5932,
      "dt": 5933,
      "Ġkoman": 5934,
      "Ġterura": 5935,
      "fu": 5936,
      "plej": 5937,
      "ĠrenkontiÄĿoj": 5938,
      "Ġkvara": 5939,
      "Ġuzu": 5940,
      "ĠAnjo": 5941,
      "Ġinfanojn": 5942,
      "ĠLiaj": 5943,
      "Ġdemandojn": 5944,
      "Ġmalkovris": 5945,
      "AÅŃ": 5946,
      "fino": 5947,
      "Ġverkojn": 5948,
      "Ġkanta": 5949,
      "Ġrezultoj": 5950,
      "76": 5951,
      "Ġkoler": 5952,
      "port": 5953,
      "ĠÄīeÄ¥a": 5954,
      "az": 5955,
      "Ġentenas": 5956,
      "ĠLern": 5957,
      "kilo": 5958,
      "...)": 5959,
      "Ġinteresaj": 5960,
      "ĠÅĿer": 5961,
      "ĠGar": 5962,
      "Ġuzanto": 5963,
      "Ġagadon": 5964,
      "pedi": 5965,
      "54": 5966,
      "pabla": 5967,
      "Ġsituacion": 5968,
      "Gla": 5969,
      "IO": 5970,
      "Ġdecidi": 5971,
      "Ġmemoro": 5972,
      "Ġperspekti": 5973,
      "Ġspekta": 5974,
      "Ġedzi": 5975,
      "Ġpraktiko": 5976,
      "Ã±": 5977,
      "ĠkaÅŃzo": 5978,
      "Ġperseku": 5979,
      "âĢ¦]": 5980,
      "Ġhejme": 5981,
      "Ġklarigas": 5982,
      "Trans": 5983,
      "Ġoriente": 5984,
      "Ġtelevi": 5985,
      "Ġalbumo": 5986,
      "ung": 5987,
      "Ġkredis": 5988,
      "kanto": 5989,
      "Ġanti": 5990,
      "ĠHu": 5991,
      "ÄĽ": 5992,
      "dago": 5993,
      "ĠLA": 5994,
      "Ġpligran": 5995,
      "ĠÃª": 5996,
      "ĠFilo": 5997,
      "Ġamuz": 5998,
      "parolantoj": 5999,
      "Ġhazarde": 6000,
      "Ġradikoj": 6001,
      "Ġvon": 6002,
      "dal": 6003,
      "ĠleÄĿoj": 6004,
      "ĠVan": 6005,
      "ĠIrano": 6006,
      "Ġreprezentantoj": 6007,
      "digo": 6008,
      "Ġelmon": 6009,
      "Ġder": 6010,
      "Ġbezonis": 6011,
      "hom": 6012,
      "Ġkvadra": 6013,
      "Ġpermesis": 6014,
      "Ġlun": 6015,
      "Ġtoler": 6016,
      "Ġinteligen": 6017,
      "Ġsopi": 6018,
      "Ġstudi": 6019,
      "ĠJohan": 6020,
      "Ġmalfrue": 6021,
      "non": 6022,
      "Â´": 6023,
      "Ġtimas": 6024,
      "deo": 6025,
      "Ġentreprenoj": 6026,
      "Ġlegen": 6027,
      "Ġrespondas": 6028,
      "Ġsimbol": 6029,
      "IR": 6030,
      "Ġsidejo": 6031,
      "mano": 6032,
      "Ġdistanco": 6033,
      "zino": 6034,
      "Ġeldi": 6035,
      "lande": 6036,
      "Ġelektro": 6037,
      "feroj": 6038,
      "voje": 6039,
      "ĠtaÅŃga": 6040,
      "Ġteg": 6041,
      "cal": 6042,
      "listo": 6043,
      "Ġeldonis": 6044,
      "Ġzono": 6045,
      "Ġdonos": 6046,
      "Ġportas": 6047,
      "TM": 6048,
      "Ġparame": 6049,
      "ĠSh": 6050,
      "ĠaÅŃdi": 6051,
      "Ġcelon": 6052,
      "Ġpreta": 6053,
      "Ġdiskon": 6054,
      "Ġoriginalo": 6055,
      "ĠEuro": 6056,
      "ĠKie": 6057,
      "Ġrespektive": 6058,
      "Ġvespere": 6059,
      "tedralo": 6060,
      "amon": 6061,
      "Ġregn": 6062,
      "Ġvarma": 6063,
      "proble": 6064,
      "ĠruÄĿ": 6065,
      "Ġdemandi": 6066,
      "Ġmalgrandan": 6067,
      "ĠAle": 6068,
      "Ġpublike": 6069,
      "ĠÄµur": 6070,
      "pole": 6071,
      "Ġproprajn": 6072,
      "klin": 6073,
      "ĠAb": 6074,
      "ĠÄīia": 6075,
      "Ġkaptis": 6076,
      "Ġvege": 6077,
      "Äĩ": 6078,
      "ĠÄīiutaga": 6079,
      "cin": 6080,
      "Ġdisponebla": 6081,
      "ĠHodiaÅŃ": 6082,
      "monda": 6083,
      "Ġlandli": 6084,
      "tujo": 6085,
      "Ġalportis": 6086,
      "Ġgej": 6087,
      "EE": 6088,
      "liam": 6089,
      "ĠWal": 6090,
      "rojekto": 6091,
      "Ġdro": 6092,
      "ĠPara": 6093,
      "aluton": 6094,
      "Ġpejza": 6095,
      "gin": 6096,
      "Ġstudo": 6097,
      "Ġknabino": 6098,
      "58": 6099,
      "Ġdiab": 6100,
      "ĠFar": 6101,
      "Ġflankoj": 6102,
      "tona": 6103,
      "Ġmulto": 6104,
      "Ġgvidanto": 6105,
      "Ġsimbolo": 6106,
      "ĠmalÄĿoj": 6107,
      "Ġkomunan": 6108,
      "Ġprav": 6109,
      "ĠKolom": 6110,
      "jojn": 6111,
      "Ġdenas": 6112,
      "Ġrestos": 6113,
      "ĠkaÅŃzas": 6114,
      "Ġkondukas": 6115,
      "uzaiko": 6116,
      "Ġcm": 6117,
      "Ġgeedzi": 6118,
      "Ġservas": 6119,
      "Ġstarigis": 6120,
      "ity": 6121,
      "Ġmuzikon": 6122,
      "Ġinvitas": 6123,
      "Ġsomero": 6124,
      "emonio": 6125,
      "Ġnomojn": 6126,
      "Ġpriskribas": 6127,
      "Ġjena": 6128,
      "Afri": 6129,
      "Ġsekv": 6130,
      "Ġprodukto": 6131,
      "Ġteritorioj": 6132,
      "gantaj": 6133,
      "Ġsendependa": 6134,
      "igxis": 6135,
      "clap": 6136,
      "Ġprefi": 6137,
      "ĠKontakto": 6138,
      "ĠMez": 6139,
      "Ġprofesia": 6140,
      "Ġmenciita": 6141,
      "taga": 6142,
      "paco": 6143,
      "Ġvojoj": 6144,
      "yle": 6145,
      "Ġsavi": 6146,
      "Ġsciencistoj": 6147,
      "42": 6148,
      "ĨįãĨįãĨįãĨįãĨįãĨįãĨįãĨįã": 6149,
      "Ġopiniis": 6150,
      "Ġfro": 6151,
      "Ġbelan": 6152,
      "Ġinkluzivas": 6153,
      "Ġanoncis": 6154,
      "deble": 6155,
      "ĠHom": 6156,
      "ĠMilito": 6157,
      "Ġfrazoj": 6158,
      "03": 6159,
      "Ġfamaj": 6160,
      "ĠRuman": 6161,
      "ĠTiun": 6162,
      "Ġeksterlandaj": 6163,
      "ĠBudape": 6164,
      "Ġmalfermis": 6165,
      "tiaj": 6166,
      "Ġmiz": 6167,
      "Ġlign": 6168,
      "99": 6169,
      "Ġforgesis": 6170,
      "ĠÅĿpar": 6171,
      "Ġkore": 6172,
      "Ġnormala": 6173,
      "Ġsamide": 6174,
      "Ġnuntempa": 6175,
      "bado": 6176,
      "Ġnee": 6177,
      "Ġpasinta": 6178,
      "57": 6179,
      "Ġbesto": 6180,
      "Ġkomfor": 6181,
      "Ġsankt": 6182,
      "47": 6183,
      "ÅĿt": 6184,
      "Ġdeziro": 6185,
      "ĠÄĪeÄ¥io": 6186,
      "Ġdikta": 6187,
      "ĠWe": 6188,
      "fr": 6189,
      "kribu": 6190,
      "Ġinstrui": 6191,
      "Ġprovizor": 6192,
      "Ġzorg": 6193,
      "ĠSpirito": 6194,
      "Ġorganizis": 6195,
      "Ġportuga": 6196,
      "Ġdemandas": 6197,
      "Ġenhavon": 6198,
      "ui": 6199,
      "uli": 6200,
      "igata": 6201,
      "ĠsaÄĿ": 6202,
      "Ġkonsentis": 6203,
      "deko": 6204,
      "Ġokcidente": 6205,
      "Ġkoncerto": 6206,
      "Ġversion": 6207,
      "Ġ36": 6208,
      "ĠMedia": 6209,
      "Ġepo": 6210,
      "Ġnego": 6211,
      "53": 6212,
      "ĠÂ©": 6213,
      "ĠFu": 6214,
      "Ġvalidas": 6215,
      "Ġcirkonstancoj": 6216,
      "Ġfe": 6217,
      "ĠelÅĿu": 6218,
      "ĠBj": 6219,
      "ĠmorgaÅŃ": 6220,
      "Ġnecese": 6221,
      "!)": 6222,
      "Ġstratoj": 6223,
      "Ġligitaj": 6224,
      "Ġentrepreno": 6225,
      "Ġsinjorino": 6226,
      "âĢŀ": 6227,
      "aÄĿe": 6228,
      "erna": 6229,
      "Ġsukcesa": 6230,
      "enato": 6231,
      "Ġinkludas": 6232,
      "Ġderi": 6233,
      "esti": 6234,
      "41": 6235,
      "ĠMari": 6236,
      "Ġmalproksime": 6237,
      "Sek": 6238,
      "Ġskribita": 6239,
      "Ġelektroni": 6240,
      "ĠJean": 6241,
      "endaro": 6242,
      "loven": 6243,
      "Ġplano": 6244,
      "Ġilus": 6245,
      "Ġeblecon": 6246,
      "Ġhistoriaj": 6247,
      "let": 6248,
      "dilo": 6249,
      "ĠMalgraÅŃ": 6250,
      "Ġpraktike": 6251,
      "Ġaktuala": 6252,
      "Ba": 6253,
      "Ġdelonge": 6254,
      "ĠHelpo": 6255,
      "skribo": 6256,
      "urojn": 6257,
      "Ġeltro": 6258,
      "Ġinsuloj": 6259,
      "vorto": 6260,
      "Ġkoncentri": 6261,
      "Ġkonson": 6262,
      "Ġplus": 6263,
      "Ġekkri": 6264,
      "Ġreligiaj": 6265,
      "ç¤¼åĮħç¤¼åĮħç¤¼åĮħç¤¼åĮħç¤¼åĮħç¤¼åĮħç¤¼åĮħç¤¼åĮħç¤¼åĮħç¤¼åĮħç¤¼åĮħç¤¼åĮħç¤¼åĮħç¤¼åĮħç¤¼åĮħç¤¼åĮħç¤¼åĮħç¤¼åĮħç¤¼åĮħç¤¼åĮħç¤¼åĮħç¤¼åĮħç¤¼åĮħç¤¼åĮħç¤¼åĮħç¤¼åĮħç¤¼åĮħç¤¼åĮħç¤¼åĮħç¤¼åĮħç¤¼åĮħç¤¼åĮħ": 6266,
      "lava": 6267,
      "ĠEstr": 6268,
      "iÄĿanta": 6269,
      "Ġkontakti": 6270,
      "Ġversioj": 6271,
      "Ġdemon": 6272,
      "cebook": 6273,
      "hol": 6274,
      "Ġprelego": 6275,
      "pr": 6276,
      "Ġkien": 6277,
      "hibicio": 6278,
      "ĠdaÅŃras": 6279,
      "Ġtomb": 6280,
      "Ġilo": 6281,
      "Ġtavo": 6282,
      "Ġsekvi": 6283,
      "kanta": 6284,
      "verso": 6285,
      "ä¸": 6286,
      "ĠLis": 6287,
      "Ġinstan": 6288,
      "Ġklarigis": 6289,
      "ĠÄĿardeno": 6290,
      "Ġrajto": 6291,
      "Ġ1920": 6292,
      "Ã¹": 6293,
      "Ġdetale": 6294,
      "ĠvilaÄĿ": 6295,
      "yn": 6296,
      "ÄĿado": 6297,
      "ĠGal": 6298,
      "orizon": 6299,
      "Ġtalen": 6300,
      "ĠBor": 6301,
      "Ġgvidantoj": 6302,
      "kru": 6303,
      "Ġreale": 6304,
      "penha": 6305,
      "Ġech": 6306,
      "Ġrezolu": 6307,
      "Ġverbo": 6308,
      "lernejo": 6309,
      "Ġakci": 6310,
      "ĠSankt": 6311,
      "Ġpripens": 6312,
      "ĠMarta": 6313,
      "ĠAlia": 6314,
      "Ġeksteraj": 6315,
      "logion": 6316,
      "fre": 6317,
      "parolo": 6318,
      "Ġ1960": 6319,
      "ĠDanio": 6320,
      "Ġ(=": 6321,
      "Ġobjektoj": 6322,
      "Ġdrin": 6323,
      "Ġkrizo": 6324,
      "insulo": 6325,
      "ĠStan": 6326,
      "Ġfinanca": 6327,
      "dri": 6328,
      "astio": 6329,
      "Ġmerkato": 6330,
      "Äīita": 6331,
      "Ġfrukto": 6332,
      "Ġ1992": 6333,
      "zumo": 6334,
      "Ġiros": 6335,
      "ÅĤaw": 6336,
      "Ġvalo": 6337,
      "Ġmembrojn": 6338,
      "Ġmilita": 6339,
      "Ġtradiciaj": 6340,
      "ĠParlamento": 6341,
      "meti": 6342,
      "Ġgenro": 6343,
      "Ġ32": 6344,
      "Ġsimpa": 6345,
      "ĠsenÄī": 6346,
      "Ġekzemploj": 6347,
      "ĠBil": 6348,
      "ith": 6349,
      "pus": 6350,
      "ĠvizaÄĿon": 6351,
      "ĠArgentino": 6352,
      "tologio": 6353,
      "ĠDSC": 6354,
      "ĠIuj": 6355,
      "Ġurbeto": 6356,
      "Ġmetodoj": 6357,
      "Ġoperaci": 6358,
      "Ġpoemoj": 6359,
      "Ġplenan": 6360,
      "Ġinstruistoj": 6361,
      "43": 6362,
      "lingvoj": 6363,
      "dom": 6364,
      "cher": 6365,
      "Ġgeamikoj": 6366,
      "Ġrespubliko": 6367,
      "Ġpartoprenas": 6368,
      "ĠantaÅŃvi": 6369,
      "Ġ1999": 6370,
      "ĠAma": 6371,
      "Ġokupis": 6372,
      "Ġrememor": 6373,
      "ege": 6374,
      "Ġetn": 6375,
      "Ġeksplu": 6376,
      "Ġabsolu": 6377,
      "esko": 6378,
      "Ġgrav": 6379,
      "Ġteron": 6380,
      "Ġpostulis": 6381,
      "02": 6382,
      "manoj": 6383,
      "Ġellabor": 6384,
      "Ġsimplaj": 6385,
      "Ġfanta": 6386,
      "Ġkreado": 6387,
      "gumi": 6388,
      "Ġheb": 6389,
      "ĠInstituto": 6390,
      "KK": 6391,
      "iÄĿoj": 6392,
      "tenon": 6393,
      "Ġkompleta": 6394,
      "Ġmodernaj": 6395,
      "Ġporno": 6396,
      "deknaÅŃ": 6397,
      "Ġanalizo": 6398,
      "Ġperfi": 6399,
      "Ġvolus": 6400,
      "ĠVirg": 6401,
      "damo": 6402,
      "juo": 6403,
      "sol": 6404,
      "Ġrobo": 6405,
      "Ġvaloron": 6406,
      "Ġcertigi": 6407,
      "ĠAmeri": 6408,
      "ĠReÄĿ": 6409,
      "Ġaperos": 6410,
      "GlaÄīero": 6411,
      "Ġdetermin": 6412,
      "Ġ48": 6413,
      "Ġregistrita": 6414,
      "Ġsano": 6415,
      "Ġportis": 6416,
      "Ġretejon": 6417,
      "ÄĿante": 6418,
      "Ġmetas": 6419,
      "ĠÄīesis": 6420,
      "Ġamon": 6421,
      "Ġverki": 6422,
      "Ġpopola": 6423,
      "Ġhavus": 6424,
      "Ġnenia": 6425,
      "Ġpublikaj": 6426,
      "âĸĳ": 6427,
      "lantaj": 6428,
      "ĠVieno": 6429,
      "Sen": 6430,
      "Wiki": 6431,
      "Ġrezign": 6432,
      "1234": 6433,
      "esulino": 6434,
      "Ġretpa": 6435,
      "ĠRaj": 6436,
      "Ġpersonojn": 6437,
      "Ġnega": 6438,
      "Ġhid": 6439,
      "ĠMis": 6440,
      "Ġradiko": 6441,
      "Ġfenomeno": 6442,
      "dezi": 6443,
      "lanoj": 6444,
      "Jam": 6445,
      "Saluton": 6446,
      "Ġinterne": 6447,
      "Ġprinc": 6448,
      "Ġcom": 6449,
      "Ġpastroj": 6450,
      "geno": 6451,
      "ketoj": 6452,
      "ĠÅĿir": 6453,
      "ĠkaÅŃz": 6454,
      "Ġalko": 6455,
      "ĠLigo": 6456,
      "Ġsekure": 6457,
      "Pe": 6458,
      "Ġnere": 6459,
      "danÄĿ": 6460,
      "ĠKongo": 6461,
      "Ġbildojn": 6462,
      "Ġkristanoj": 6463,
      "Ġgazetoj": 6464,
      "123456": 6465,
      "Äģ": 6466,
      "haveno": 6467,
      "Ġesprimas": 6468,
      "Ä¥i": 6469,
      "Ġejo": 6470,
      "Ġjare": 6471,
      "Ġgrado": 6472,
      "Ġ1995": 6473,
      "Ġfruaj": 6474,
      "kino": 6475,
      "ĠWa": 6476,
      "Ġkoloro": 6477,
      "8765": 6478,
      "deknaÅŃi": 6479,
      ".âĢľ": 6480,
      "Ġfremd": 6481,
      "ĠFlor": 6482,
      "ĠinteresiÄĿas": 6483,
      "Ġaraba": 6484,
      "pru": 6485,
      "taloj": 6486,
      "Ġkonkurso": 6487,
      "pil": 6488,
      "ksio": 6489,
      "ĠÅĿata": 6490,
      "ĠÄīeÄ¥": 6491,
      "Ġlukto": 6492,
      "ĠPortuga": 6493,
      "Ġkaraktero": 6494,
      "dato": 6495,
      "Ġleteron": 6496,
      "balo": 6497,
      "Ġklar": 6498,
      "doro": 6499,
      "fia": 6500,
      "dantaj": 6501,
      "vortoj": 6502,
      "ĠDankon": 6503,
      "ĠMadri": 6504,
      "Ġdankon": 6505,
      "Ġblankaj": 6506,
      "Ġmontr": 6507,
      "ĠfariÄĿi": 6508,
      "Ġefiko": 6509,
      "vadon": 6510,
      "Ġakv": 6511,
      "trejo": 6512,
      "ĠKonstitu": 6513,
      "Ġkapablo": 6514,
      "Ġkunsido": 6515,
      "Ġ×": 6516,
      "Ġpinto": 6517,
      "Ġkonker": 6518,
      "Ġtaskon": 6519,
      "Ġdatreveno": 6520,
      "Ġsorto": 6521,
      "EU": 6522,
      "ĠFil": 6523,
      "Ġparlamen": 6524,
      "Ġ1991": 6525,
      "paci": 6526,
      "debla": 6527,
      "Kel": 6528,
      "Ġukra": 6529,
      "ĠÄĿojo": 6530,
      "Ġ1998": 6531,
      "Ġesprimis": 6532,
      "nas": 6533,
      "naÄµo": 6534,
      "Ġagi": 6535,
      "teloj": 6536,
      "igan": 6537,
      "Ġplum": 6538,
      "ĠWor": 6539,
      "Ġrekonstru": 6540,
      "ksaj": 6541,
      "Ġretejoj": 6542,
      "74": 6543,
      "Ġmiliton": 6544,
      "Ġadministran": 6545,
      "inan": 6546,
      "cri": 6547,
      "Si": 6548,
      "Ġporna": 6549,
      "Ġmortigi": 6550,
      "Ġrefor": 6551,
      "ĠmanÄĿas": 6552,
      "ĠBud": 6553,
      "\").": 6554,
      "akte": 6555,
      "ĠSim": 6556,
      "Ġjubile": 6557,
      "Ġcertaj": 6558,
      "PER": 6559,
      "Ġetaj": 6560,
      "Ġoficejo": 6561,
      "ĠJako": 6562,
      "ĠNorve": 6563,
      "ĠBrita": 6564,
      "Ġpasi": 6565,
      "ĠKroa": 6566,
      "ult": 6567,
      "Ġtrafi": 6568,
      "Ġindiki": 6569,
      "stri": 6570,
      "Ġintencas": 6571,
      "Ġkomb": 6572,
      "ĠVjet": 6573,
      "Ġricev": 6574,
      "Ġrigardo": 6575,
      "ĠMoseo": 6576,
      "Ġelstara": 6577,
      "Ãª": 6578,
      "Ġgim": 6579,
      "emoj": 6580,
      "Ġ[...]": 6581,
      "kuris": 6582,
      "ĠAmbaÅŃ": 6583,
      "Ġfilozofi": 6584,
      "Ġmaterialoj": 6585,
      "tori": 6586,
      "Ġtrafis": 6587,
      "Ġlicen": 6588,
      "Ġokazoj": 6589,
      "ĠVes": 6590,
      "kie": 6591,
      "ĠLibro": 6592,
      "Ġeksterordin": 6593,
      "Ġprenas": 6594,
      "Ġcert": 6595,
      "Ġprojekton": 6596,
      "Ġdepartemento": 6597,
      "mons": 6598,
      "ĠAnti": 6599,
      "Ġvarm": 6600,
      "moni": 6601,
      "ĠÄīefministro": 6602,
      "63": 6603,
      "Ġspertis": 6604,
      "ĠtaÅŃgas": 6605,
      "Ġrifuzis": 6606,
      "ĠPala": 6607,
      "Ġgrandeco": 6608,
      "ĠFranca": 6609,
      "Ġekspozicio": 6610,
      "galo": 6611,
      "Tra": 6612,
      "ĠEston": 6613,
      "tagmeze": 6614,
      "tito": 6615,
      "dadon": 6616,
      "Ġleganto": 6617,
      "Ling": 6618,
      "ĠStra": 6619,
      "Ġrakontoj": 6620,
      "Ġprincipoj": 6621,
      "ĠWilliam": 6622,
      "ĠPalestino": 6623,
      "Ġegal": 6624,
      "lejo": 6625,
      "Ġsul": 6626,
      "ĠreÄĿis": 6627,
      "Ġbono": 6628,
      "Ġebleco": 6629,
      "oso": 6630,
      "Ġsencon": 6631,
      "Ð²": 6632,
      "ĠRigar": 6633,
      "Ġmankis": 6634,
      "funkci": 6635,
      "Ġvizitantoj": 6636,
      "Ġareoj": 6637,
      "erni": 6638,
      "Ġful": 6639,
      "mana": 6640,
      "ĠnovaÄµoj": 6641,
      "Ġsukcesas": 6642,
      "spi": 6643,
      "citaj": 6644,
      "ĠÅł": 6645,
      "anÄĿ": 6646,
      "ĠSt": 6647,
      "ĠÅľablono": 6648,
      "okaze": 6649,
      "telon": 6650,
      "Ġkompan": 6651,
      "Ġ33": 6652,
      "Ġmuzika": 6653,
      "Ġ1993": 6654,
      "61": 6655,
      "ĠKen": 6656,
      "Ġmiliar": 6657,
      "Ġpreten": 6658,
      "Jo": 6659,
      "ĠPopola": 6660,
      "Ġrimedojn": 6661,
      "Ġkulturaj": 6662,
      "lip": 6663,
      "Ġpropri": 6664,
      "Ġset": 6665,
      "67": 6666,
      "Di": 6667,
      "Ġ38": 6668,
      "Ġplurfoje": 6669,
      "Ġkonduto": 6670,
      "Ġfavore": 6671,
      "libron": 6672,
      "Ġarbar": 6673,
      "Ġrespondon": 6674,
      "sor": 6675,
      "wn": 6676,
      "BI": 6677,
      "Ġlimoj": 6678,
      "kia": 6679,
      "kanoj": 6680,
      "Ġadreso": 6681,
      "Ġesprim": 6682,
      "Ġredakti": 6683,
      "wikipedia": 6684,
      "ĠinÄĿeni": 6685,
      "Ġparale": 6686,
      "Ġludoj": 6687,
      "ĠorganizaÄµoj": 6688,
      "taraj": 6689,
      "Ġlev": 6690,
      "Ġliteratura": 6691,
      "Ġordinara": 6692,
      "france": 6693,
      "ĠGol": 6694,
      "tinte": 6695,
      "ĠDistribu": 6696,
      "ving": 6697,
      "Ġchiuj": 6698,
      "ĠKatalun": 6699,
      "ĠKomunejo": 6700,
      "Ġjuro": 6701,
      "ĠÄĪeÄ¥a": 6702,
      "Kore": 6703,
      "Ñĥ": 6704,
      "ĠMaj": 6705,
      "ĠdaÅŃrigis": 6706,
      "Ġkomencantoj": 6707,
      "ĠJunulara": 6708,
      "alistoko": 6709,
      "ĠaÅŃtomate": 6710,
      "atas": 6711,
      "Ġalti": 6712,
      "Ġekvidis": 6713,
      "Ġmaldekstra": 6714,
      "ĠeÅŃroj": 6715,
      "Ġdiploma": 6716,
      "ĠRumanio": 6717,
      "Ġrezis": 6718,
      "Ġx": 6719,
      "Ġos": 6720,
      "Ġinterre": 6721,
      "Ġsuferis": 6722,
      "ĠBiblio": 6723,
      "Ġenga": 6724,
      "ĠFrancisko": 6725,
      "ĠTon": 6726,
      "Ġkaf": 6727,
      "Ġ150": 6728,
      "ĠAleksandro": 6729,
      "digita": 6730,
      "sion": 6731,
      "Ġinstruas": 6732,
      "LEI": 6733,
      "Ġlokojn": 6734,
      "ĠPeter": 6735,
      "Ġspecifa": 6736,
      "Ġantau": 6737,
      "Ġtenis": 6738,
      "ĠZam": 6739,
      "Ġpozicio": 6740,
      "inteco": 6741,
      "Ġpovi": 6742,
      "Ġmontoj": 6743,
      "Ġmortigis": 6744,
      "Ġesperantista": 6745,
      "Ġagadoj": 6746,
      "Ġteatro": 6747,
      "ĠaliÄĿi": 6748,
      "Ġâĸĳ": 6749,
      "Ġâĸĳâĸĳ": 6750,
      "Ġkonci": 6751,
      "Ġekha": 6752,
      "Ġrimarkin": 6753,
      "enc": 6754,
      "stata": 6755,
      "Ġsinteno": 6756,
      "Ġkoron": 6757,
      "Ġmalfermita": 6758,
      "ĠaranÄĿoj": 6759,
      "Ġlib": 6760,
      "Ġmalpu": 6761,
      "ĠkuÅĿas": 6762,
      "Ġkomplete": 6763,
      "ĠHal": 6764,
      "metis": 6765,
      "Ġenkonduko": 6766,
      "anco": 6767,
      "digas": 6768,
      "ĠTeks": 6769,
      "ĠDE": 6770,
      "ĠRej": 6771,
      "ĠÂ».": 6772,
      "ĠkomenciÄĿas": 6773,
      "trikto": 6774,
      "itajn": 6775,
      "Ġmallar": 6776,
      "Ġbrak": 6777,
      "tejoj": 6778,
      "Ġhavebla": 6779,
      "Ġvokis": 6780,
      "Ġturnis": 6781,
      "gli": 6782,
      "Ġteni": 6783,
      "Ġtemon": 6784,
      "gvi": 6785,
      "Ġdezir": 6786,
      "nombraj": 6787,
      "kson": 6788,
      ",[": 6789,
      "Ġrikol": 6790,
      "ĠLitera": 6791,
      "Ġekspozi": 6792,
      "fina": 6793,
      "ĠPA": 6794,
      "ĠParto": 6795,
      "ĠTar": 6796,
      "Ġfratino": 6797,
      "sekso": 6798,
      "trita": 6799,
      "veblaj": 6800,
      "menio": 6801,
      "Ġstatus": 6802,
      "tenoj": 6803,
      "ĠGru": 6804,
      "ĠOli": 6805,
      "ĠTan": 6806,
      "71": 6807,
      "Ġsing": 6808,
      "Ġvivanta": 6809,
      "Ġnomataj": 6810,
      "angla": 6811,
      "Ġspertoj": 6812,
      "Ġnature": 6813,
      "stroj": 6814,
      "ĠFrank": 6815,
      "-)": 6816,
      "orado": 6817,
      "Ġajnan": 6818,
      "ÅĿtatoj": 6819,
      "ĠRuÄĿa": 6820,
      "ĠĠĠĠĠĠĠĠĠĠĠĠĠĠĠĠ": 6821,
      "ÄĻ": 6822,
      "tila": 6823,
      "este": 6824,
      "Ġtemperaturo": 6825,
      "Ġ1945": 6826,
      "Ġatako": 6827,
      "ĠBedaÅŃrinde": 6828,
      "DO": 6829,
      "Ġekestis": 6830,
      "Ġtridek": 6831,
      "Ġimpli": 6832,
      "linio": 6833,
      "ĠÄĿojas": 6834,
      "ĠlarÄĿa": 6835,
      "ĠmesaÄĿo": 6836,
      "eman": 6837,
      "tenis": 6838,
      "ĠBos": 6839,
      "Ġhorojn": 6840,
      "ĠfeliÄīa": 6841,
      "hen": 6842,
      "Ġforton": 6843,
      "lubo": 6844,
      "ĠKantono": 6845,
      "Ġimagi": 6846,
      "Ġviva": 6847,
      "Ġmiri": 6848,
      "Äīeco": 6849,
      "ĠhodiaÅŃa": 6850,
      "Äīambro": 6851,
      "ĠÄīeesto": 6852,
      "ĠmanÄĿo": 6853,
      "Ġangulo": 6854,
      "Ġkonstruo": 6855,
      "Ġfojo": 6856,
      "htm": 6857,
      "tinta": 6858,
      "Ġprelegoj": 6859,
      "Ġneaten": 6860,
      "blioteko": 6861,
      "Ġunika": 6862,
      "Ġmencio": 6863,
      "ise": 6864,
      "ĠstaÄĿo": 6865,
      "Ġfervor": 6866,
      "Ġreveni": 6867,
      "ĠGrekio": 6868,
      "Ro": 6869,
      "kara": 6870,
      "Ġlitero": 6871,
      "ĠkontraÅŃsta": 6872,
      "ĠDosiero": 6873,
      "Ġvico": 6874,
      "premi": 6875,
      "Ġadjek": 6876,
      "Ġgu": 6877,
      "chen": 6878,
      "Ġfrancaj": 6879,
      "Ġnederlanda": 6880,
      "eston": 6881,
      "Ġdiros": 6882,
      "Ġapartan": 6883,
      "Ġtelevido": 6884,
      "Ġokcidento": 6885,
      "tuna": 6886,
      "Ġripro": 6887,
      "progra": 6888,
      "grand": 6889,
      "Ġhotelo": 6890,
      "ĠRon": 6891,
      "Ġtradukon": 6892,
      "ĠMinis": 6893,
      "ĠBr": 6894,
      "Ġgrup": 6895,
      "Ġpraktika": 6896,
      "hard": 6897,
      "Ġrealigi": 6898,
      "ospita": 6899,
      "Ġantikvaj": 6900,
      "ige": 6901,
      "inga": 6902,
      "Ġorganizita": 6903,
      "ĠnaskiÄĿo": 6904,
      "ĠvoÄīoj": 6905,
      "ĠDes": 6906,
      "Ġbonfar": 6907,
      "Ġtromp": 6908,
      "ĠVerda": 6909,
      "KOKOKOKOKOKOKOKOKOKOKOKOKOKOKOKO": 6910,
      "CO": 6911,
      "Nia": 6912,
      "Ġnenian": 6913,
      "Ġsocialismo": 6914,
      "esperanta": 6915,
      "Ñı": 6916,
      "lig": 6917,
      "Ġaldonas": 6918,
      "Me": 6919,
      "ffi": 6920,
      "Ġinformi": 6921,
      "Ġprogramaro": 6922,
      "mm": 6923,
      "Ġtemplo": 6924,
      "ĠGri": 6925,
      "ĠVortaro": 6926,
      "oraj": 6927,
      "Ġartistoj": 6928,
      "Ġepiskopo": 6929,
      "ĠMondmilito": 6930,
      "ÅĿipo": 6931,
      "Ġvideblas": 6932,
      "ĠLand": 6933,
      "ĠGro": 6934,
      "Ġveran": 6935,
      "ĠTTT": 6936,
      "Ġdissen": 6937,
      "Ġesperantaj": 6938,
      "Ġbonega": 6939,
      "xoj": 6940,
      "dina": 6941,
      "pt": 6942,
      "cik": 6943,
      "Ġglu": 6944,
      "Ġkonstanta": 6945,
      "Ġapara": 6946,
      "Ġkorpon": 6947,
      "Ġkategorio": 6948,
      "Ver": 6949,
      "bleco": 6950,
      "ĠvilaÄĿoj": 6951,
      "Ġnaturaj": 6952,
      "Ġverkistoj": 6953,
      "ĠdaÅŃr": 6954,
      "ĠdisvolviÄĿo": 6955,
      "ĠPrezidanto": 6956,
      "Ġpensoj": 6957,
      "Ġfurio": 6958,
      "Ġmunicipo": 6959,
      "ĠSinjor": 6960,
      "Ġponto": 6961,
      "tela": 6962,
      "Ġinves": 6963,
      "ĠFondumo": 6964,
      "Ġprov": 6965,
      "ĠWar": 6966,
      "Ġpalaco": 6967,
      "Ġfako": 6968,
      "Äľis": 6969,
      "lov": 6970,
      "Ġinsek": 6971,
      "Ġplanas": 6972,
      "Ġmalamikoj": 6973,
      "Ġkilometrojn": 6974,
      "ĠEli": 6975,
      "ĠKroatio": 6976,
      "ĠSom": 6977,
      "ĠPapo": 6978,
      "51": 6979,
      "US": 6980,
      "niko": 6981,
      "formaj": 6982,
      "ĠTurkio": 6983,
      "ĠestiÄĿis": 6984,
      "Ġ1994": 6985,
      "Ġfortan": 6986,
      "Ġmapo": 6987,
      "Ġmask": 6988,
      "Ġproto": 6989,
      "kono": 6990,
      "ĠÅĿanÄĿojn": 6991,
      "Ġeben": 6992,
      "Ġfrancan": 6993,
      "Ġperfekta": 6994,
      "kluzive": 6995,
      "ĠMediaWiki": 6996,
      "ernio": 6997,
      "Ġkompreno": 6998,
      "Lo": 6999,
      "Ġdioj": 7000,
      "Ġplue": 7001,
      "Ġfrene": 7002,
      "Ġora": 7003,
      "Ġoficialaj": 7004,
      "ÄĿantaj": 7005,
      "ĠBern": 7006,
      "Ġlevis": 7007,
      "ĠBah": 7008,
      "ĠGPL": 7009,
      "Ġpoezio": 7010,
      "Ġsupera": 7011,
      "Ġprezidan": 7012,
      "Ġtutmonde": 7013,
      "kosta": 7014,
      "umojn": 7015,
      "uja": 7016,
      "ĠÂĹ": 7017,
      "Ġkurson": 7018,
      "Ġefika": 7019,
      "Ġegale": 7020,
      "Ġcelis": 7021,
      "unda": 7022,
      "Ġkavali": 7023,
      "chi": 7024,
      "ĠÄĿui": 7025,
      "Ġblua": 7026,
      "ĠCx": 7027,
      "ĠHispana": 7028,
      "Ġpriskribi": 7029,
      "ĠserÄīo": 7030,
      "kaux": 7031,
      "tonoj": 7032,
      "Ġpasigis": 7033,
      "Ġvidebla": 7034,
      "Ġenergi": 7035,
      "Ġkovri": 7036,
      "Ġgeneralo": 7037,
      "sam": 7038,
      "ĠKru": 7039,
      "ĠKaro": 7040,
      "ĠlaÅŃle": 7041,
      "Ġjusteco": 7042,
      "ĠPrago": 7043,
      "tantan": 7044,
      "ĠBas": 7045,
      "ĠDion": 7046,
      "ceano": 7047,
      "Ġsveda": 7048,
      "Ġbla": 7049,
      "Ġ34": 7050,
      "Ġ39": 7051,
      "grafiaj": 7052,
      "Ġdeveno": 7053,
      "uling": 7054,
      "osa": 7055,
      "puro": 7056,
      "Ġampleksa": 7057,
      "kolora": 7058,
      "Ð´": 7059,
      "ĠMol": 7060,
      "Ġkomentoj": 7061,
      "legis": 7062,
      "ĠAten": 7063,
      "Ġnombroj": 7064,
      "Ġ1930": 7065,
      "64": 7066,
      "Ġ00": 7067,
      "dioj": 7068,
      "ĠPek": 7069,
      "tuÅĿ": 7070,
      "Ġnokte": 7071,
      "lata": 7072,
      "Ġrespub": 7073,
      "Ġproduktas": 7074,
      "Ġkosmo": 7075,
      "ÅĿte": 7076,
      "Ġrekomendas": 7077,
      "Ġsimilan": 7078,
      "zado": 7079,
      "Ġregistaroj": 7080,
      "ĠreÄĿimo": 7081,
      "Ġecx": 7082,
      "Ġdelika": 7083,
      "Ġpotencon": 7084,
      "Ġsenpage": 7085,
      "uel": 7086,
      "ĠPlu": 7087,
      "Ġserv": 7088,
      "ĠPrivata": 7089,
      "wiki": 7090,
      "Ġkilometroj": 7091,
      "Ġjunulo": 7092,
      "Ġ1997": 7093,
      "terioj": 7094,
      "ÃŃa": 7095,
      "Ġcivitan": 7096,
      "Ġtribun": 7097,
      "Ġmilitoj": 7098,
      "car": 7099,
      "tumo": 7100,
      "Ġmalakcep": 7101,
      "Ġinfana": 7102,
      "Ġkir": 7103,
      "ĠMun": 7104,
      "Ġindividuoj": 7105,
      "Ġgramatiko": 7106,
      "Ġpart": 7107,
      "Ġvaloroj": 7108,
      "Ġtransform": 7109,
      "Ġperforto": 7110,
      "ĠFundamento": 7111,
      "Ġhas": 7112,
      "Ġkongresoj": 7113,
      "ĠWikimedia": 7114,
      "Be": 7115,
      "Ġvers": 7116,
      "fiki": 7117,
      "Ġrit": 7118,
      "ligen": 7119,
      "vantoj": 7120,
      "ĠArmeo": 7121,
      "ĠInterna": 7122,
      "ĠÄīambr": 7123,
      "ĠÄµetis": 7124,
      "Ġveron": 7125,
      "ĠÄĿuis": 7126,
      "Ġpromesis": 7127,
      "ĠUzanto": 7128,
      "ĠGvineo": 7129,
      "Ġoro": 7130,
      "permesilo": 7131,
      "Ġmoment": 7132,
      "Ġiloj": 7133,
      "Ġperdi": 7134,
      "ille": 7135,
      "Ġebli": 7136,
      "ĠPakis": 7137,
      "tristo": 7138,
      "ip": 7139,
      "prin": 7140,
      "âĹ": 7141,
      "ose": 7142,
      "Ġekzek": 7143,
      "blis": 7144,
      "ĠKvin": 7145,
      "Ġverk": 7146,
      "Ġleci": 7147,
      "ĠAnna": 7148,
      "Ġfunkciis": 7149,
      "duso": 7150,
      "ĠmesaÄĿ": 7151,
      "vigo": 7152,
      "Ġpin": 7153,
      "Ġpeza": 7154,
      "Ġuniversala": 7155,
      "mono": 7156,
      "Ġul": 7157,
      "taÄµon": 7158,
      "rez": 7159,
      "eld": 7160,
      "Ġkulp": 7161,
      "Ġsono": 7162,
      "ĠKonstan": 7163,
      "Ġprezentita": 7164,
      "ĠKopenha": 7165,
      "Ġarmiloj": 7166,
      "77": 7167,
      "Ġhelpan": 7168,
      "ĠUsona": 7169,
      "Ġunufoje": 7170,
      "Ġsubven": 7171,
      "Ġstarigi": 7172,
      "demokra": 7173,
      "Ġ1910": 7174,
      "ĠChi": 7175,
      "Ġinforma": 7176,
      "Ġagrabla": 7177,
      "Ġmalmo": 7178,
      "Ġregulo": 7179,
      "Ġfirme": 7180,
      "Ġgeneracioj": 7181,
      "Ġstacidomo": 7182,
      "69": 7183,
      "Ġmek": 7184,
      "Ġpersonaj": 7185,
      "ĠPaul": 7186,
      "Ġ1989": 7187,
      "Ġpacon": 7188,
      "Ġscienc": 7189,
      "Ġmetrojn": 7190,
      "Ġkamara": 7191,
      "ĠFilip": 7192,
      "turn": 7193,
      "Ġfaktoj": 7194,
      "Ġnigraj": 7195,
      "celi": 7196,
      "ĠHol": 7197,
      "bser": 7198,
      "ĠadiaÅŃ": 7199,
      "Ġtun": 7200,
      "Ġinteresoj": 7201,
      "ĠMen": 7202,
      "ĠpaÅĿo": 7203,
      "paroj": 7204,
      "ĠNikola": 7205,
      "Kial": 7206,
      "Ġtrajtoj": 7207,
      "NA": 7208,
      "Ġkuba": 7209,
      "iso": 7210,
      "ĠEgiptio": 7211,
      "Ġmirinda": 7212,
      "Ġbild": 7213,
      "Ġelektas": 7214,
      "Ġrezultojn": 7215,
      "Ġklopodis": 7216,
      "Ġaviadilo": 7217,
      "uk": 7218,
      "Ġofta": 7219,
      "Ġpasintaj": 7220,
      "Ġkontribuis": 7221,
      "blajn": 7222,
      "Ġpoemo": 7223,
      "Ġmalkres": 7224,
      "ĠÄĮ": 7225,
      "krimin": 7226,
      "provi": 7227,
      "Ġstudoj": 7228,
      "vadministra": 7229,
      "Ġ<": 7230,
      "Ġhorizon": 7231,
      "Ġmencias": 7232,
      "vadoro": 7233,
      "pajn": 7234,
      "Ġmat": 7235,
      "62": 7236,
      "Ġalteco": 7237,
      "Ġdisko": 7238,
      "Ġenhavadministra": 7239,
      "agren": 7240,
      "Ã¡r": 7241,
      "lie": 7242,
      "kot": 7243,
      "Ġkalkul": 7244,
      "Ġrimedo": 7245,
      "73": 7246,
      "tiÄĿon": 7247,
      "fur": 7248,
      "Ġpremo": 7249,
      "Ġstacio": 7250,
      "ĠRevolu": 7251,
      "Ġspecialaj": 7252,
      "ĠÃ¦": 7253,
      "Ġsubtenon": 7254,
      "Ġnokt": 7255,
      "ĠtuÅĿ": 7256,
      "pp": 7257,
      "tonon": 7258,
      "ĠCha": 7259,
      "ĠÅĿatis": 7260,
      "Ġununura": 7261,
      "Na": 7262,
      "mala": 7263,
      "ejmo": 7264,
      "ĠKomence": 7265,
      "Ġmilionojn": 7266,
      "Ġgrupon": 7267,
      "Ġgrundo": 7268,
      "Ġ1996": 7269,
      "Ġrilaton": 7270,
      "hoj": 7271,
      "Ġhaltis": 7272,
      "ĠdaÅŃrigi": 7273,
      "Ġtrajno": 7274,
      "Ġtombo": 7275,
      "Ġkub": 7276,
      "ĠdisÄīi": 7277,
      "Ġtradukita": 7278,
      "tigu": 7279,
      "Ġign": 7280,
      "ĠPen": 7281,
      "tute": 7282,
      "Ġprepari": 7283,
      "menko": 7284,
      "Ġkonsistigas": 7285,
      "ĠAsembleo": 7286,
      "Ġkoordinatoj": 7287,
      "mil": 7288,
      "ĠiÄĿi": 7289,
      "Ġmalfermi": 7290,
      "ky": 7291,
      "ganoj": 7292,
      "grupoj": 7293,
      "filo": 7294,
      "Ġmalamiko": 7295,
      "grade": 7296,
      "Ġtitolon": 7297,
      "ĠSto": 7298,
      "Ġsteloj": 7299,
      "ĠAfgan": 7300,
      "dadis": 7301,
      "Ġkana": 7302,
      "Ġgita": 7303,
      "ĠDistribuata": 7304,
      "Fine": 7305,
      "Ġesence": 7306,
      "Ġinformis": 7307,
      "ĠInterreto": 7308,
      "gvajo": 7309,
      "Ġpolitikan": 7310,
      "Ġregulojn": 7311,
      "Ġgeneracio": 7312,
      "ĠPortugalio": 7313,
      "glu": 7314,
      "amas": 7315,
      "ĠJoze": 7316,
      "ĠfeliÄī": 7317,
      "bia": 7318,
      "è¡": 7319,
      "Ġdolaroj": 7320,
      "Ġeraro": 7321,
      "IC": 7322,
      "ĠMuzaiko": 7323,
      "tula": 7324,
      "prote": 7325,
      "Ġamaso": 7326,
      "Ġprotekti": 7327,
      "ĠhieraÅŃ": 7328,
      "ĠKur": 7329,
      "Ġ55": 7330,
      "Ã©s": 7331,
      "Ġproponon": 7332,
      "Ġoriento": 7333,
      "Ġunuopaj": 7334,
      "Ġvidpun": 7335,
      "Ġfranc": 7336,
      "ĠEsperantaj": 7337,
      "noma": 7338,
      "Kio": 7339,
      "kovri": 7340,
      "Ġsalono": 7341,
      "Ġmalvarma": 7342,
      "idoj": 7343,
      "ĠOfte": 7344,
      "Ġbelega": 7345,
      "ls": 7346,
      "aÅŃri": 7347,
      "Ġnormale": 7348,
      "ĠViki": 7349,
      "ĠZe": 7350,
      "ĠNuntempe": 7351,
      "TV": 7352,
      "hn": 7353,
      "Ġdezajn": 7354,
      "ĠÅĿanÄĿiÄĿis": 7355,
      "Ġenmig": 7356,
      "trata": 7357,
      "Ġflago": 7358,
      "Ġposedanto": 7359,
      "Ġvio": 7360,
      "Ġretiri": 7361,
      "dejoj": 7362,
      "BN": 7363,
      "âĢ²": 7364,
      "Ġmontaro": 7365,
      "Ġfotojn": 7366,
      "Ġvetero": 7367,
      "rekven": 7368,
      "ĠIMGP": 7369,
      "Ġmanifesta": 7370,
      "peris": 7371,
      "Ġpropor": 7372,
      "Ġkomis": 7373,
      "ĠDar": 7374,
      "Ġformi": 7375,
      "Ġatente": 7376,
      "ĠILEI": 7377,
      "Ġdiskuti": 7378,
      "Ġblank": 7379,
      "Ġsuferas": 7380,
      "Ġgxis": 7381,
      "ĠRevuo": 7382,
      "Ġdirekti": 7383,
      "Ġkonstatis": 7384,
      "Ġmovadon": 7385,
      "RE": 7386,
      "Ġnove": 7387,
      "ĠÅĿancon": 7388,
      "Ġestonta": 7389,
      "Tre": 7390,
      "Ġjur": 7391,
      "Ġsincer": 7392,
      "Ġabsolute": 7393,
      "ĠRenkon": 7394,
      "Ġniveloj": 7395,
      "ĠSamtempe": 7396,
      "ĠKoreio": 7397,
      "teblaj": 7398,
      "ĠKatalunio": 7399,
      "ws": 7400,
      "tinon": 7401,
      "parolis": 7402,
      "Ġarkitek": 7403,
      "Ġtalk": 7404,
      "tren": 7405,
      "tivon": 7406,
      "Ġekspli": 7407,
      "Ġbezono": 7408,
      "gua": 7409,
      "'.": 7410,
      "uis": 7411,
      "Ġprokras": 7412,
      "Ġtemis": 7413,
      "ĠVladi": 7414,
      "Ġdefendi": 7415,
      "oria": 7416,
      "ĠListo": 7417,
      "Ġlaboroj": 7418,
      "ĠSon": 7419,
      "ĠKatolika": 7420,
      "ĠKolombio": 7421,
      "Ġpoloj": 7422,
      "Ġfenomen": 7423,
      "Ġ1950": 7424,
      "Cen": 7425,
      "Ġinvers": 7426,
      "Ġnub": 7427,
      "Ġindas": 7428,
      "Ġparolado": 7429,
      "fla": 7430,
      "lic": 7431,
      "Ġpordon": 7432,
      "ĠNiÄĿ": 7433,
      "Ġlanda": 7434,
      "Ġeblis": 7435,
      "Ġkontrolo": 7436,
      "Ġraporton": 7437,
      "Ġkontinento": 7438,
      "ĠÄĪeÄ¥os": 7439,
      "Ġsens": 7440,
      "Ġkian": 7441,
      "ĠKara": 7442,
      "Ġtiutempe": 7443,
      "Ġpasinteco": 7444,
      "ĠÂ»,": 7445,
      "aÄĿa": 7446,
      "ĠmalÄĿus": 7447,
      "Ġmalferma": 7448,
      "ss": 7449,
      "Ġsenti": 7450,
      "Ġmulton": 7451,
      "ĠbuÅĿo": 7452,
      "ĠetendiÄĿas": 7453,
      "AJ": 7454,
      "Ġmizer": 7455,
      "Ġelekton": 7456,
      "enio": 7457,
      "Ġfortaj": 7458,
      "Ġgras": 7459,
      "umita": 7460,
      "Ġeblon": 7461,
      "ĠMondo": 7462,
      "Ġgastoj": 7463,
      "Ġserioza": 7464,
      "ĠCam": 7465,
      "ĠRobert": 7466,
      "Ġsupozeble": 7467,
      "ĠÅĿu": 7468,
      "ĠmesaÄĿon": 7469,
      "entaj": 7470,
      "Ġvel": 7471,
      "Ġalveno": 7472,
      "dajxo": 7473,
      "Ġnekre": 7474,
      "Ã¼n": 7475,
      "Ġraportis": 7476,
      "uld": 7477,
      "emoni": 7478,
      "Ġsignoj": 7479,
      "ĠEDE": 7480,
      "Ġtrian": 7481,
      "hem": 7482,
      "plik": 7483,
      "Ġmalven": 7484,
      "poka": 7485,
      "Ġkomisiono": 7486,
      "Ġrid": 7487,
      "ĠlaÅŃlonge": 7488,
      "cht": 7489,
      "ĠCommons": 7490,
      "ingen": 7491,
      "ĠFern": 7492,
      "Ġorigine": 7493,
      "ebo": 7494,
      "ĠSirio": 7495,
      "Ġbezonoj": 7496,
      "timo": 7497,
      "ĠCivito": 7498,
      "Ġagen": 7499,
      "ĠÄīer": 7500,
      "Ġinterrila": 7501,
      "Ġdoktor": 7502,
      "Ġekonomiaj": 7503,
      "____": 7504,
      "Ġ37": 7505,
      "Ġ||": 7506,
      "ĠinaÅŃgu": 7507,
      "Ġhin": 7508,
      "Ġhuman": 7509,
      "Ġmaga": 7510,
      "Ġflugo": 7511,
      "Ġplenumas": 7512,
      "win": 7513,
      "orus": 7514,
      "Ġjud": 7515,
      "Ġeraroj": 7516,
      "Ġgren": 7517,
      "cos": 7518,
      "Ġkontraux": 7519,
      "miloj": 7520,
      "kcidente": 7521,
      "ĠNovjor": 7522,
      "Ġapliki": 7523,
      "ĠaÄī": 7524,
      "ted": 7525,
      "donis": 7526,
      "Ġart": 7527,
      "Ġspirita": 7528,
      "koloj": 7529,
      "cienco": 7530,
      "ot": 7531,
      "Ã¼r": 7532,
      "play": 7533,
      "Sub": 7534,
      "Ġdume": 7535,
      "Ġfremda": 7536,
      "ĠTek": 7537,
      "landon": 7538,
      "Ġsuk": 7539,
      "Ġpedago": 7540,
      "AL": 7541,
      "Ġagas": 7542,
      "Ġestante": 7543,
      "Ġigis": 7544,
      "Ġriveroj": 7545,
      "Ġkomuniki": 7546,
      "Ġtaskoj": 7547,
      "\"),": 7548,
      "ĠIu": 7549,
      "Ġfido": 7550,
      "reative": 7551,
      "ĠDok": 7552,
      "Ġliter": 7553,
      "ĠLegu": 7554,
      "Ġdoktoro": 7555,
      "trajn": 7556,
      "Ġspecoj": 7557,
      "Nov": 7558,
      "tiloj": 7559,
      "ĠPon": 7560,
      "uskri": 7561,
      "fir": 7562,
      "Ġsudori": 7563,
      "Ġfolioj": 7564,
      "Par": 7565,
      "ji": 7566,
      "Ġpord": 7567,
      "veturi": 7568,
      "ĠloÄĿejo": 7569,
      "Ġasertis": 7570,
      "Ġsku": 7571,
      "Ġsidas": 7572,
      "Ġforigo": 7573,
      "Ġkoni": 7574,
      "Ġplimul": 7575,
      "Ġfrenez": 7576,
      "Ġakademi": 7577,
      "ulinoj": 7578,
      "Gra": 7579,
      "Ġpolitikistoj": 7580,
      "ĠModulo": 7581,
      "Äīar": 7582,
      "ĠKr": 7583,
      "Ġinterkonsento": 7584,
      "Ġ600": 7585,
      "ANTO": 7586,
      "tetoj": 7587,
      "Ġglo": 7588,
      "ĠIrako": 7589,
      "Ġkostas": 7590,
      "Ġlernej": 7591,
      "Ġsolen": 7592,
      "Ġelpens": 7593,
      "Ġtrezor": 7594,
      "ĠÄīiel": 7595,
      "Ġsciencaj": 7596,
      "Ġcxu": 7597,
      "Ġkontribui": 7598,
      "ÅĿajn": 7599,
      "ĠUnesko": 7600,
      "Ġ{\\": 7601,
      "Ġkalkuli": 7602,
      "ander": 7603,
      "Ġstelo": 7604,
      "Ġmelo": 7605,
      "Ġdefendo": 7606,
      "For": 7607,
      "Ġske": 7608,
      "ĠserÄīis": 7609,
      "istaj": 7610,
      "palo": 7611,
      "wicz": 7612,
      "ktanto": 7613,
      "Ġbier": 7614,
      "ĠSz": 7615,
      "duro": 7616,
      "ĠChris": 7617,
      "Ġkampanjo": 7618,
      "Ġpur": 7619,
      "mez": 7620,
      "Ġveraj": 7621,
      "Ġturo": 7622,
      "ĠaÅŃtomo": 7623,
      "Ġmalof": 7624,
      "ĠSocieto": 7625,
      "98": 7626,
      "Ġnelonge": 7627,
      "voja": 7628,
      "Ġpravas": 7629,
      "Ġescepte": 7630,
      "Or": 7631,
      "mile": 7632,
      "ĠHor": 7633,
      "aba": 7634,
      "Ġcxiu": 7635,
      "IL": 7636,
      "Ġkrim": 7637,
      "Ġmuroj": 7638,
      "Ã³w": 7639,
      "Ġkandidatoj": 7640,
      "ĠGaza": 7641,
      "Ġorgano": 7642,
      "rigi": 7643,
      "ĠEK": 7644,
      "Ġherb": 7645,
      "Ġaktivuloj": 7646,
      "nor": 7647,
      "wer": 7648,
      "Ġspon": 7649,
      "dite": 7650,
      "Ġsamseks": 7651,
      "Ġprovizi": 7652,
      "ĠtranÄī": 7653,
      "Ġjunulara": 7654,
      "ball": 7655,
      "ĠBudapeÅĿto": 7656,
      "Ġnutra": 7657,
      "æľĪ": 7658,
      "Ġskribo": 7659,
      "ĠParo": 7660,
      "Ġproksimaj": 7661,
      "Ġakceptita": 7662,
      "Ġjenaj": 7663,
      "Ġfem": 7664,
      "viÄĿas": 7665,
      "Ġtiele": 7666,
      "ĠNobel": 7667,
      "Ġopinioj": 7668,
      "ĠstreÄī": 7669,
      "Ġ42": 7670,
      "veturis": 7671,
      "guloj": 7672,
      "Ġsurfaco": 7673,
      "Ġkovras": 7674,
      "tego": 7675,
      "Ġdefinition": 7676,
      "The": 7677,
      "Ġsuver": 7678,
      "Ġ~": 7679,
      "Ġtroveblas": 7680,
      "Ġeksciis": 7681,
      "kl": 7682,
      "Multaj": 7683,
      "âĢī": 7684,
      "ĠUsti": 7685,
      "Ġesplori": 7686,
      "ĠTutmonda": 7687,
      "ktantoj": 7688,
      "gula": 7689,
      "Ãł": 7690,
      "mann": 7691,
      "Ã¶r": 7692,
      "ksem": 7693,
      "Ġamaskomunikiloj": 7694,
      "Ġmarks": 7695,
      "Ġsankte": 7696,
      "ĠKopenhago": 7697,
      "feron": 7698,
      "Ġnunaj": 7699,
      "Ġceremonio": 7700,
      "Ġpereis": 7701,
      "Ġforlasi": 7702,
      "ankaÅŃ": 7703,
      "erno": 7704,
      "ĠÄĿiajn": 7705,
      "Ġklasoj": 7706,
      "zaÄµo": 7707,
      "Ġnulo": 7708,
      "Ġefike": 7709,
      "ĠFree": 7710,
      "Ġsumo": 7711,
      "Ġmir": 7712,
      "ĠSaint": 7713,
      "Ġsubskribis": 7714,
      "ĠLor": 7715,
      "acian": 7716,
      "lina": 7717,
      "canoj": 7718,
      "Ġeterna": 7719,
      "pata": 7720,
      "ktato": 7721,
      "ecaj": 7722,
      "Ġnekonata": 7723,
      "ug": 7724,
      "ĠSuper": 7725,
      "Ġidoj": 7726,
      "Ġmapoj": 7727,
      "Ġlinioj": 7728,
      "sign": 7729,
      "Ġrestari": 7730,
      "plenaj": 7731,
      "andar": 7732,
      "Ġutilas": 7733,
      "fto": 7734,
      "âĢİ": 7735,
      "gataj": 7736,
      "Ġmoder": 7737,
      "dav": 7738,
      "ĠHit": 7739,
      "venoj": 7740,
      "Ġsamkiel": 7741,
      "pud": 7742,
      "Ġaspekton": 7743,
      "Ġkulturon": 7744,
      "Ġbabi": 7745,
      "manta": 7746,
      "Ġ49": 7747,
      "ecan": 7748,
      "entojn": 7749,
      "Ġano": 7750,
      "dekso": 7751,
      "Ġkelke": 7752,
      "Ġbazaj": 7753,
      "Ġklopodas": 7754,
      "ĠrifuÄĿ": 7755,
      "Ha": 7756,
      "Ġflank": 7757,
      "Ġdonu": 7758,
      "Ġhundo": 7759,
      "by": 7760,
      "Ġnigr": 7761,
      "Ġhttps": 7762,
      "Ġghin": 7763,
      "ĠVjetnam": 7764,
      "Ġplaco": 7765,
      "ĠJesu": 7766,
      "89": 7767,
      "ĠÅĿto": 7768,
      "Ġlegado": 7769,
      "Ã£": 7770,
      "Ġrigardon": 7771,
      "ĠMadrido": 7772,
      "Î±": 7773,
      "ĠSol": 7774,
      "vir": 7775,
      "usz": 7776,
      "donio": 7777,
      "Ġinsul": 7778,
      "Ġpotenca": 7779,
      "Ġpalestin": 7780,
      "ismoj": 7781,
      "Ġgig": 7782,
      "ĠtaÄī": 7783,
      "Ġesperantan": 7784,
      "Ġ400": 7785,
      "Ġinformas": 7786,
      "Ġkapitalismo": 7787,
      "ĠFederacio": 7788,
      "Ġigas": 7789,
      "Ġforgesu": 7790,
      "UR": 7791,
      "Ġmuze": 7792,
      "Ġalfron": 7793,
      "ĠjuÄĿis": 7794,
      "Ġimpreson": 7795,
      "Du": 7796,
      "Ġavi": 7797,
      "ĠKD": 7798,
      "Ġkadro": 7799,
      "Ġterur": 7800,
      "ÇĶ": 7801,
      "rata": 7802,
      "ĠKia": 7803,
      "Ġdato": 7804,
      "Ġpioni": 7805,
      "Ġkurs": 7806,
      "ĠmontriÄĿis": 7807,
      "Ġaperi": 7808,
      "Ġpunktoj": 7809,
      "ĠEkonom": 7810,
      "Ġgli": 7811,
      "Ġesperante": 7812,
      "Tiuj": 7813,
      "Ġdekli": 7814,
      "Ġekonomi": 7815,
      "Ģè": 7816,
      "logoj": 7817,
      "Ġliberaj": 7818,
      "Ġutili": 7819,
      "Ġminimume": 7820,
      "Ġdormo": 7821,
      "ĠFacebook": 7822,
      "Ġ01": 7823,
      "Ġdiskutoj": 7824,
      "Ġdezerto": 7825,
      "MO": 7826,
      "Ġelemento": 7827,
      "Ä¥io": 7828,
      "Kro": 7829,
      "rinte": 7830,
      "Ġsubtenis": 7831,
      "Ġpliajn": 7832,
      "ĠKir": 7833,
      "piskopo": 7834,
      "ĠPakistano": 7835,
      "ĠteÄ¥": 7836,
      "Ġeksa": 7837,
      "Ġfojojn": 7838,
      "pia": 7839,
      "ĠAnt": 7840,
      "Ġstrange": 7841,
      "ĠVere": 7842,
      "Ġnordori": 7843,
      "Ġorganizas": 7844,
      "Ġsele": 7845,
      "ĠelÅĿuti": 7846,
      "Ġforumo": 7847,
      "Ġreligioj": 7848,
      "Ġmam": 7849,
      "Ġfilon": 7850,
      "ĠmaÅĿino": 7851,
      "HodiaÅŃ": 7852,
      "ĠÄīagren": 7853,
      "Ġgol": 7854,
      "erika": 7855,
      "Ġrefle": 7856,
      "Ġmontran": 7857,
      "Ġvestoj": 7858,
      "Ġgasti": 7859,
      "ĠneÄĿo": 7860,
      "Ġkolo": 7861,
      "ĠÄīefo": 7862,
      "Ġvarias": 7863,
      "ĠKana": 7864,
      "ĠMes": 7865,
      "Ġdiverseco": 7866,
      "gne": 7867,
      "Ġamikojn": 7868,
      "Ġrakont": 7869,
      "ĠaranÄĿi": 7870,
      "Eble": 7871,
      "German": 7872,
      "ĠBrus": 7873,
      "ĠGab": 7874,
      "Ġbezonata": 7875,
      "ĠUrbo": 7876,
      "Ġaplika": 7877,
      "Ġteknologio": 7878,
      "Koreio": 7879,
      "atoj": 7880,
      "pion": 7881,
      "Ġlaborista": 7882,
      "Ġtrio": 7883,
      "Poste": 7884,
      "Ġafab": 7885,
      "Ġmonatojn": 7886,
      "Ġpolitikisto": 7887,
      "ĠMale": 7888,
      "ĠBus": 7889,
      "Ġkuir": 7890,
      "Ġpopolon": 7891,
      "Ġradika": 7892,
      "ĠÄīambron": 7893,
      "ms": 7894,
      "rantaj": 7895,
      "Ġlastatempe": 7896,
      "Ġtrupoj": 7897,
      "Ġkonstitucio": 7898,
      "omas": 7899,
      "Ġlandaj": 7900,
      "ĠNeces": 7901,
      "Ġtereno": 7902,
      "Ġsituanta": 7903,
      "videbla": 7904,
      "Ġhelpe": 7905,
      "Ġasoci": 7906,
      "Ġbrusto": 7907,
      "xis": 7908,
      "Ġfestivalo": 7909,
      "lima": 7910,
      "Ġkunteksto": 7911,
      "Ġfier": 7912,
      "Ġesploro": 7913,
      "ĠTradu": 7914,
      "Ð¼": 7915,
      "Ġkunpor": 7916,
      "ĠNom": 7917,
      "ĠÅĿil": 7918,
      "Kiu": 7919,
      "ĠokupiÄĿas": 7920,
      "gma": 7921,
      "grafo": 7922,
      "Ġesplorado": 7923,
      "ĠBulgario": 7924,
      "Ġmalle": 7925,
      "ĠMark": 7926,
      "Ġesploroj": 7927,
      "Ġmenciis": 7928,
      "ĠNorvegio": 7929,
      "ĠreÄĿa": 7930,
      "ĠAIS": 7931,
      "kore": 7932,
      "fektive": 7933,
      "Ġkonsideris": 7934,
      "Ġkin": 7935,
      "ĠKonferenco": 7936,
      "ĠRegis": 7937,
      "Ġviktimoj": 7938,
      "ÄĿintaj": 7939,
      "Ġokupas": 7940,
      "reda": 7941,
      "Ġkvanton": 7942,
      "ĠEstraro": 7943,
      "nur": 7944,
      "Ġmikro": 7945,
      "Ġmemstare": 7946,
      "ĠRam": 7947,
      "Ġorganiza": 7948,
      "Ġmallonge": 7949,
      "Ġveturis": 7950,
      ".-": 7951,
      "Ce": 7952,
      "Ġfleks": 7953,
      "laude": 7954,
      "Ġsila": 7955,
      "Ġsindika": 7956,
      "Ġkunlabori": 7957,
      "Ġplenumis": 7958,
      "voro": 7959,
      "diono": 7960,
      "Ġenketoj": 7961,
      "Uni": 7962,
      "ĠaÅŃdas": 7963,
      "ĠKontraÅŃ": 7964,
      "ĠZa": 7965,
      "tions": 7966,
      "Ġadapti": 7967,
      "Ġplezuro": 7968,
      "ĠkuÅĿis": 7969,
      "kcia": 7970,
      "Ġekzist": 7971,
      "ĠanstataÅŃe": 7972,
      "Ġprovizas": 7973,
      "Ġyou": 7974,
      "istojn": 7975,
      "ĠFranc": 7976,
      "Ġkoloroj": 7977,
      "Ġgermanan": 7978,
      "Ġevoluon": 7979,
      "plon": 7980,
      "ĠpaÅĿoj": 7981,
      "disku": 7982,
      "sona": 7983,
      "flor": 7984,
      "dion": 7985,
      "tria": 7986,
      "Ġvok": 7987,
      "ĠbranÄīo": 7988,
      "ĺĩ": 7989,
      "art": 7990,
      "ĠJES": 7991,
      "Ġcivili": 7992,
      "ardeno": 7993,
      "Ġmaterialon": 7994,
      "undoj": 7995,
      "Ġkamp": 7996,
      "ĠAliflanke": 7997,
      "Ġargumentoj": 7998,
      "adi": 7999,
      "ĠEx": 8000,
      "Ġarta": 8001,
      "Ġbatali": 8002,
      "ime": 8003,
      "tikajn": 8004,
      "ĠTuj": 8005,
      "ĠGor": 8006,
      "Ġkritiko": 8007,
      "antajn": 8008,
      "Äµa": 8009,
      "tuo": 8010,
      "Ġdisvastigi": 8011,
      "Ġintervjuo": 8012,
      "88": 8013,
      "Ġdelegi": 8014,
      "Ġrekom": 8015,
      "ĀĀĀĀĀĀĀĀĀĀĀĀĀĀĀĀ": 8016,
      "Ġportugala": 8017,
      "OS": 8018,
      "feli": 8019,
      "ÑĮ": 8020,
      "rup": 8021,
      "lavo": 8022,
      "tipo": 8023,
      "Ġfrun": 8024,
      "Ġtrakti": 8025,
      "Ġevoluis": 8026,
      "Ġliteratur": 8027,
      "Ġkatolikaj": 8028,
      "ĠanÄĿ": 8029,
      "Ġtaksi": 8030,
      "Ġdecidas": 8031,
      "ct": 8032,
      "Ġvino": 8033,
      "Ġmos": 8034,
      "Ġretum": 8035,
      "Ġjene": 8036,
      "Ġfilozofo": 8037,
      "AP": 8038,
      "zil": 8039,
      "Ã¡s": 8040,
      "Ġisra": 8041,
      "Ġpene": 8042,
      "ĠÄľuste": 8043,
      "Ġdestin": 8044,
      "Ġzorgas": 8045,
      "ĠISBN": 8046,
      "è¡Ģè": 8047,
      "ĠSep": 8048,
      "Ġbazon": 8049,
      "Ġorganizantoj": 8050,
      "Ġesperantistojn": 8051,
      "Ġmodifi": 8052,
      "Ġ{{": 8053,
      "ĺĩæľĪ": 8054,
      "è¡ĢèĺĩæľĪ": 8055,
      "ĠFal": 8056,
      "Ġkantas": 8057,
      "ðŁĺ¨": 8058,
      "EM": 8059,
      "valoj": 8060,
      "prenas": 8061,
      "Ġplejparto": 8062,
      "ĠOkaz": 8063,
      "df": 8064,
      "Ġ44": 8065,
      "Ven": 8066,
      "kiÄĿis": 8067,
      "kongreso": 8068,
      "Ġfinna": 8069,
      "rigardis": 8070,
      ".).": 8071,
      "trans": 8072,
      "ĠÄīapitro": 8073,
      "Ġinterese": 8074,
      "Ġregula": 8075,
      "fru": 8076,
      "berio": 8077,
      "Ġprofesiaj": 8078,
      "Ġmenciitaj": 8079,
      "Ġoli": 8080,
      "Ġsendas": 8081,
      "ĠAndreo": 8082,
      "ĠUstimenko": 8083,
      "ary": 8084,
      "Ġhim": 8085,
      "Ġplat": 8086,
      "Ġklimato": 8087,
      "Ġvapor": 8088,
      "ðŁĺ¨ðŁĺ¨": 8089,
      "Ġmalgaj": 8090,
      "ĠmalriÄī": 8091,
      "ficiala": 8092,
      "Ġdecidoj": 8093,
      "Ġinfluon": 8094,
      "Ġiniciato": 8095,
      "setti": 8096,
      "vadis": 8097,
      "Ġrub": 8098,
      "vigi": 8099,
      "Ġintereson": 8100,
      "petalo": 8101,
      "Ġunuajn": 8102,
      "Ġvendre": 8103,
      "Ġebligis": 8104,
      "ÅĿtato": 8105,
      "Ġatmos": 8106,
      "ĠJordan": 8107,
      "Ġekkriis": 8108,
      "Ġ]": 8109,
      "Ġkis": 8110,
      "Ġprogreso": 8111,
      "Ġruin": 8112,
      "Ġmalsamajn": 8113,
      "tikoj": 8114,
      "Ġsimil": 8115,
      "Ġkataluna": 8116,
      "bul": 8117,
      "divi": 8118,
      "Ġglute": 8119,
      "Ġplor": 8120,
      "Ġneceso": 8121,
      "tto": 8122,
      "style": 8123,
      "Ġfono": 8124,
      "ferm": 8125,
      "rinda": 8126,
      "ÄĿadis": 8127,
      "Ġprintempo": 8128,
      "Ġoriginalan": 8129,
      "Ġtimis": 8130,
      "Ġdufoje": 8131,
      "Ġpostaj": 8132,
      "ciklope": 8133,
      "ĠBla": 8134,
      "soci": 8135,
      "bona": 8136,
      "Ġintencis": 8137,
      "Ġchu": 8138,
      "ĠÄµurnalisto": 8139,
      "Ġalfabeto": 8140,
      "ctor": 8141,
      "Ġdefi": 8142,
      "Ġgene": 8143,
      "ĠaÅŃtuno": 8144,
      "Ġfias": 8145,
      "Ġproponoj": 8146,
      "jaro": 8147,
      "Ñĭ": 8148,
      "ĠsenÄīese": 8149,
      "yo": 8150,
      "Ġpse": 8151,
      "Ġangle": 8152,
      "-,": 8153,
      "ÅĽ": 8154,
      "Ġfeti": 8155,
      "Ġfori": 8156,
      "ĠKiom": 8157,
      "Ġmalsanoj": 8158,
      "falo": 8159,
      "Ġdecidon": 8160,
      "Ġrespekto": 8161,
      "Ġelektitaj": 8162,
      "2015": 8163,
      "Sh": 8164,
      "bris": 8165,
      "Ġtan": 8166,
      "Ġforigita": 8167,
      "Ġfondinto": 8168,
      "ĠJulio": 8169,
      "Ġmeritas": 8170,
      "xon": 8171,
      "ĠMu": 8172,
      "Ġplian": 8173,
      "Ġ1987": 8174,
      "gebla": 8175,
      "kvali": 8176,
      "Ġdenun": 8177,
      "cus": 8178,
      "tikolo": 8179,
      "Ġrakonti": 8180,
      "Ġvalora": 8181,
      "Ġordono": 8182,
      "Ġuniversitatoj": 8183,
      "lantaro": 8184,
      "mun": 8185,
      "tte": 8186,
      "Ġintertra": 8187,
      "bela": 8188,
      "Ġï»¿": 8189,
      "uras": 8190,
      "ĠKali": 8191,
      "ĠSloven": 8192,
      "ĠPaci": 8193,
      "lanko": 8194,
      "Ġdiskrimin": 8195,
      "Ġrab": 8196,
      "ĠSimp": 8197,
      "Ġglaci": 8198,
      "vara": 8199,
      "Ġsentoj": 8200,
      "ĠleviÄĿis": 8201,
      "Ġnuda": 8202,
      "Ġproduktis": 8203,
      "joroj": 8204,
      "tima": 8205,
      "ĠJon": 8206,
      "Ġinformado": 8207,
      "ĠaÅŃtomata": 8208,
      "ln": 8209,
      "Ġsud": 8210,
      "lasta": 8211,
      "ĠIzraeli": 8212,
      "Ġkriis": 8213,
      "Ġit": 8214,
      "ĠiÄĿos": 8215,
      "Ġprocentoj": 8216,
      "laso": 8217,
      "Ġsocieto": 8218,
      "Ġmalbonaj": 8219,
      "Ġkonsil": 8220,
      "Ġprofesi": 8221,
      "ĠVenezu": 8222,
      "ĠSar": 8223,
      "Ġkorp": 8224,
      "Ġdana": 8225,
      "Ġekzameno": 8226,
      "dosi": 8227,
      "lori": 8228,
      "mus": 8229,
      "Ġpremis": 8230,
      "Ġribelo": 8231,
      "ĠÂ°": 8232,
      "ĠIom": 8233,
      "Ġkonscio": 8234,
      "ĠIndone": 8235,
      "Ġfrag": 8236,
      "Ġkalendaro": 8237,
      "ĠHungara": 8238,
      "Ġreveno": 8239,
      "Ġvenu": 8240,
      "ĠAnkoraÅŃ": 8241,
      "Ġturni": 8242,
      "Ġrondo": 8243,
      "ĠNigra": 8244,
      "Ġnai": 8245,
      "Ġkantojn": 8246,
      "Ġbrazila": 8247,
      "spaco": 8248,
      "Ġlig": 8249,
      "rajta": 8250,
      "Ġinteresajn": 8251,
      "fem": 8252,
      "Ġmanuskri": 8253,
      "Ġmastrum": 8254,
      "ĠLes": 8255,
      "ĠCreative": 8256,
      "Ġfakuloj": 8257,
      "Ġ47": 8258,
      "nia": 8259,
      "ÃŁ": 8260,
      "Ġinfek": 8261,
      "ĠÅŃ": 8262,
      "ĠÄīinaj": 8263,
      "Ġbiero": 8264,
      "ĠÅľan": 8265,
      "ĠBea": 8266,
      "ĠÄīarto": 8267,
      "Ġmodif": 8268,
      "Ġdinastio": 8269,
      "ĠMicha": 8270,
      "ÅĦski": 8271,
      "radis": 8272,
      "cias": 8273,
      "ĠEri": 8274,
      "Ġposteno": 8275,
      "Ġreprezentanto": 8276,
      "ĠretpoÅĿton": 8277,
      "bek": 8278,
      "Ġ[âĢ¦]": 8279,
      "bach": 8280,
      "ĠplaÄīas": 8281,
      "Ġdorso": 8282,
      "Ġkongreson": 8283,
      "Kion": 8284,
      "eu": 8285,
      "itoj": 8286,
      "ĠmanÄĿis": 8287,
      "Ġkutimo": 8288,
      "Ġmiskompren": 8289,
      "Ġmallumo": 8290,
      "kvar": 8291,
      "Ġdiser": 8292,
      "metas": 8293,
      "Ġpapero": 8294,
      "Ġvintro": 8295,
      "Ġmortinta": 8296,
      "84": 8297,
      "ĠKla": 8298,
      "rajto": 8299,
      "Ġvortaroj": 8300,
      "hou": 8301,
      "lamo": 8302,
      "Ġtrankvile": 8303,
      "Ġmanieroj": 8304,
      "piÄīo": 8305,
      "ĠEkz": 8306,
      "Ġpatron": 8307,
      "ĠHenriko": 8308,
      "Ġortodo": 8309,
      "ĠAntonio": 8310,
      "è¡ĢèĺĩæľĪè¡ĢèĺĩæľĪ": 8311,
      "Ġambas": 8312,
      "ĠÄµet": 8313,
      "Ġligiloj": 8314,
      "Ġdiplom": 8315,
      "ĠAnticipo": 8316,
      "Ġento": 8317,
      "Ġmembr": 8318,
      "Ġkosto": 8319,
      "Bo": 8320,
      "Ġgal": 8321,
      "Ġsuben": 8322,
      "fratoj": 8323,
      "Ġrestoracio": 8324,
      "fona": 8325,
      "Ġlegu": 8326,
      "à¤": 8327,
      "Ġperfekte": 8328,
      "Kar": 8329,
      "Ġkonferen": 8330,
      "Ġinteresas": 8331,
      "Ġstud": 8332,
      "Ġgimna": 8333,
      "foro": 8334,
      "Ġadvo": 8335,
      "Ġkutim": 8336,
      "Ġaspektoj": 8337,
      "Ġetos": 8338,
      "alisma": 8339,
      "Ġpreparis": 8340,
      "Ġdepende": 8341,
      "ĠdanÄĿero": 8342,
      "DF": 8343,
      "ĠDen": 8344,
      "Ġromia": 8345,
      "Ġpluvo": 8346,
      "Ġprenu": 8347,
      "ĠWiki": 8348,
      "Ġenskrib": 8349,
      "Komen": 8350,
      "Ġpentristo": 8351,
      "ĠBaldaÅŃ": 8352,
      "cere": 8353,
      "wit": 8354,
      "display": 8355,
      "Ġhaveno": 8356,
      "torioj": 8357,
      "Ġtenas": 8358,
      "Ġklientoj": 8359,
      "rilate": 8360,
      "fami": 8361,
      "Tiel": 8362,
      "cerdo": 8363,
      "gni": 8364,
      "Ġferi": 8365,
      "Ġtekniko": 8366,
      "ĠOndo": 8367,
      "ork": 8368,
      "Ġformojn": 8369,
      "Ġkarakteron": 8370,
      "Ġcelojn": 8371,
      "Jun": 8372,
      "Ġrealo": 8373,
      "Ġrigi": 8374,
      "Ġpenis": 8375,
      "ĠvojaÄĿis": 8376,
      "vidente": 8377,
      "ĠÅĿtono": 8378,
      "Ġripar": 8379,
      "ĠfariÄĿos": 8380,
      "Ġindividuaj": 8381,
      "ĠdediÄīita": 8382,
      "ĠPub": 8383,
      "mantoj": 8384,
      "Ġgazetaro": 8385,
      "92": 8386,
      "Ġprole": 8387,
      "emp": 8388,
      "ĠpaÄĿojn": 8389,
      "Ġkongresanoj": 8390,
      "Ġtrejnado": 8391,
      "Ġepizo": 8392,
      "500": 8393,
      "ĠNE": 8394,
      "Ġkonservas": 8395,
      "supra": 8396,
      "uda": 8397,
      "ĠInstru": 8398,
      "ederacio": 8399,
      "ĠfeliÄīo": 8400,
      "ĠneÅŃtrala": 8401,
      "Ġ_": 8402,
      "Ġbol": 8403,
      "piÄīoj": 8404,
      "Ġdecid": 8405,
      "Ġmame": 8406,
      "daÄµon": 8407,
      "Ġ1919": 8408,
      "nudaÄµo": 8409,
      "umenta": 8410,
      "Ġsvisa": 8411,
      "Ġaf": 8412,
      "ĠBata": 8413,
      "iÄĿante": 8414,
      "nive": 8415,
      "Ġeldonejo": 8416,
      "Vidu": 8417,
      "Ġkapitalo": 8418,
      "Ġevangelio": 8419,
      "num": 8420,
      "ĠMil": 8421,
      "Ġavan": 8422,
      "Ġkadav": 8423,
      "Ġeksta": 8424,
      "tigoj": 8425,
      "donu": 8426,
      "Ġfoton": 8427,
      "Ġvest": 8428,
      "Ġorigino": 8429,
      "kordo": 8430,
      "Ġfirm": 8431,
      "Kongreso": 8432,
      "displaystyle": 8433,
      "Ġmet": 8434,
      "Ġrol": 8435,
      "Ġsilento": 8436,
      "tene": 8437,
      "Ġpozicion": 8438,
      "Ġmovadoj": 8439,
      "Ġfiguro": 8440,
      "dres": 8441,
      "ĠBela": 8442,
      "ĠAnstataÅŃ": 8443,
      "Ġoficistoj": 8444,
      "aton": 8445,
      "ĠPrus": 8446,
      "ĠkontraÅŃdi": 8447,
      "Ġjusta": 8448,
      "San": 8449,
      "Ġtum": 8450,
      "Ġvikipedi": 8451,
      "Ġcerbo": 8452,
      "ĠGermanujo": 8453,
      "Ġdomin": 8454,
      "Åĳ": 8455,
      "cip": 8456,
      "ĠGeo": 8457,
      "Ġkreo": 8458,
      "bato": 8459,
      "Ġkvindek": 8460,
      "cii": 8461,
      "komer": 8462,
      "ĠRich": 8463,
      "Ġaku": 8464,
      "Ġfortojn": 8465,
      "Ġekspedi": 8466,
      "Ġkanton": 8467,
      "adoj": 8468,
      "klaku": 8469,
      "Ġoficialan": 8470,
      "Ġregiona": 8471,
      "Ġpolitikon": 8472,
      "Ġmalnovan": 8473,
      "Ġdorm": 8474,
      "Ġkonserva": 8475,
      "ĠÅĿablono": 8476,
      "Ġegip": 8477,
      "turojn": 8478,
      "Ġkomunaj": 8479,
      "ĠLeon": 8480,
      "hej": 8481,
      "ĠØ": 8482,
      "laÄµoj": 8483,
      "Ġ43": 8484,
      "Ġsperton": 8485,
      "Ġdirekte": 8486,
      "ĠKristnas": 8487,
      "ĠVlaÄījo": 8488,
      "Ġhospita": 8489,
      "ĠMongo": 8490,
      "Ġregulaj": 8491,
      "datum": 8492,
      "Ġkunordi": 8493,
      "Ġkapabla": 8494,
      "Ġkongresa": 8495,
      "ĠGeorge": 8496,
      "Ġprivi": 8497,
      "Ġatento": 8498,
      "Ġnord": 8499,
      "Ġligilon": 8500,
      "Ġ1905": 8501,
      "Ġstrategi": 8502,
      "listoj": 8503,
      "Ġgro": 8504,
      "Ġpago": 8505,
      "Ġdonaco": 8506,
      "Ġkreskanta": 8507,
      "Sin": 8508,
      "tatoj": 8509,
      "Ġaktor": 8510,
      "Ġfilmon": 8511,
      "Ġdifinas": 8512,
      "Ġinstitucio": 8513,
      "Ġaposto": 8514,
      "Ġfamilia": 8515,
      "logie": 8516,
      "Ġdolor": 8517,
      "Ġeka": 8518,
      "Ġprosper": 8519,
      "Ġsenmo": 8520,
      "Ġcertas": 8521,
      "Ġsukcesos": 8522,
      "Ġimpon": 8523,
      "Ġedzin": 8524,
      "ĠVjetnamio": 8525,
      "BC": 8526,
      "vy": 8527,
      "laÄµo": 8528,
      "Ġlaci": 8529,
      "Äīojn": 8530,
      "Ġmontro": 8531,
      "Ġlingvan": 8532,
      "Ġtrej": 8533,
      "Ġknabinoj": 8534,
      "arth": 8535,
      "gaze": 8536,
      "ĠBiblioteko": 8537,
      "Ġrando": 8538,
      "Ġmodifita": 8539,
      "Ġpel": 8540,
      "ĠOS": 8541,
      "Ġpasint": 8542,
      "Ġnajbaraj": 8543,
      "ĠKons": 8544,
      "ÅŃropa": 8545,
      "Ġtiamaniere": 8546,
      "Ġaspektis": 8547,
      "gla": 8548,
      "Ġkonsum": 8549,
      "Ġcentoj": 8550,
      "zerbaj": 8551,
      "poni": 8552,
      "forto": 8553,
      "Ġfakul": 8554,
      "Ġkomunum": 8555,
      "Ġegalas": 8556,
      "cki": 8557,
      "ĠkaÅŃzoj": 8558,
      "fluo": 8559,
      "Ġgejun": 8560,
      "Krom": 8561,
      "eran": 8562,
      "Ġmorton": 8563,
      "Ġrenvers": 8564,
      "ÂĶ": 8565,
      "Ġdungi": 8566,
      "Ġkomisi": 8567,
      "Ġgvid": 8568,
      "ĠpornaÄµo": 8569,
      "Ġ(...)": 8570,
      "ĠerotikaÄµo": 8571,
      "entis": 8572,
      "Ġkost": 8573,
      "temaj": 8574,
      "Neni": 8575,
      "gs": 8576,
      "omio": 8577,
      "Ġportre": 8578,
      "ĠdanÄĿera": 8579,
      "Ġanstata": 8580,
      "Ġkemi": 8581,
      "ternacia": 8582,
      "Ġspecife": 8583,
      "Ġfunkcioj": 8584,
      "Ġkruc": 8585,
      "Ġatakoj": 8586,
      "Ġrevizi": 8587,
      "Ġkvina": 8588,
      "ĠEstonio": 8589,
      "Alia": 8590,
      "Ġhan": 8591,
      "ĠaÅŃstra": 8592,
      "ĠarÄĿ": 8593,
      "Ġaldone": 8594,
      "Ġfidin": 8595,
      "Ġsukceson": 8596,
      "Ġinsis": 8597,
      "ĠAtlan": 8598,
      "Ġagrikulturo": 8599,
      "ĠâĢİ": 8600,
      "nivelo": 8601,
      "Ġari": 8602,
      "heim": 8603,
      "Ġelsendo": 8604,
      "His": 8605,
      "Ġfrekven": 8606,
      "Ġsezono": 8607,
      "lulo": 8608,
      "ĠÄĪirkaÅŃ": 8609,
      "ksitaj": 8610,
      "utime": 8611,
      "Ġrekompen": 8612,
      "klon": 8613,
      "ketojn": 8614,
      "Ġkontrau": 8615,
      "ĠVenezuelo": 8616,
      "Ġtraktas": 8617,
      "Ġkontribuoj": 8618,
      "Ġjara": 8619,
      "Ġkomercaj": 8620,
      "Ġreciproke": 8621,
      "XXX": 8622,
      "zberg": 8623,
      "igus": 8624,
      "ĠEspero": 8625,
      "ice": 8626,
      "anaj": 8627,
      "Ġfuneb": 8628,
      "Ġelektra": 8629,
      "ĠRoter": 8630,
      "Ġslo": 8631,
      "Ġ46": 8632,
      "feti": 8633,
      "Ġkristanaj": 8634,
      "ĠVas": 8635,
      "Ġpasas": 8636,
      "nuda": 8637,
      "Ġprovincoj": 8638,
      "Ġgraveco": 8639,
      "Ġdevi": 8640,
      "Ġpolu": 8641,
      "ĠAbra": 8642,
      "Ġaparato": 8643,
      "Ġsonas": 8644,
      "tve": 8645,
      "temo": 8646,
      "rina": 8647,
      "Ġmalkovri": 8648,
      "Ġkreinto": 8649,
      "Ġpermesi": 8650,
      "Ġpropr": 8651,
      "Ġlasas": 8652,
      "ĠTogo": 8653,
      "Ġpastr": 8654,
      "Ġhidro": 8655,
      "Î¿": 8656,
      "mane": 8657,
      "ĠSpeci": 8658,
      "ĠHindio": 8659,
      "ĠAfganio": 8660,
      "ptoj": 8661,
      "maÅĿ": 8662,
      "chel": 8663,
      "ĠPoz": 8664,
      "Kelkaj": 8665,
      "ĠÅĿipoj": 8666,
      "gxon": 8667,
      "Ġatakis": 8668,
      "ĠScienca": 8669,
      "Ġtage": 8670,
      "Ġbongus": 8671,
      "Ġalkoho": 8672,
      "EG": 8673,
      "Ġporti": 8674,
      "denta": 8675,
      "ĠokazaÄµoj": 8676,
      "Ġenirejo": 8677,
      "miks": 8678,
      "Ġkomputiloj": 8679,
      "Ġmalforta": 8680,
      "has": 8681,
      "alt": 8682,
      "ĠFab": 8683,
      "Ġdetalojn": 8684,
      "ojo": 8685,
      "Ġsateli": 8686,
      "ĠaÅŃskultis": 8687,
      "Ekzistas": 8688,
      "Ġsurfa": 8689,
      "Ġservojn": 8690,
      "Ġ41": 8691,
      "Ġflughaveno": 8692,
      "intajn": 8693,
      "poten": 8694,
      "grado": 8695,
      "ktata": 8696,
      "ĠToki": 8697,
      "ĠheredaÄµo": 8698,
      "bjek": 8699,
      "Ġformor": 8700,
      "iÄĿinte": 8701,
      "Tiam": 8702,
      "Ġgajni": 8703,
      "Ġsupr": 8704,
      "Ġpropagando": 8705,
      "Äħ": 8706,
      "ĠIN": 8707,
      "Ġimpos": 8708,
      "Ġarkite": 8709,
      "RI": 8710,
      "Ġsensen": 8711,
      "Ġkorto": 8712,
      "Ġofice": 8713,
      "ĠLuksem": 8714,
      "Ġinvitis": 8715,
      "Ġmalpe": 8716,
      "Ġsidi": 8717,
      "ĠLat": 8718,
      "Ġkanti": 8719,
      "Ġpriskribis": 8720,
      "Ġpruvi": 8721,
      "Ġmalaltaj": 8722,
      "Ġmezepoko": 8723,
      "Ġkonstati": 8724,
      "Ġfur": 8725,
      "ĠmallaÅŃ": 8726,
      "Ġverkas": 8727,
      "ĠjuÄĿ": 8728,
      "Ġsonor": 8729,
      "gosla": 8730,
      "----": 8731,
      "dul": 8732,
      "fano": 8733,
      "koti": 8734,
      "kursoj": 8735,
      "ĠNapole": 8736,
      "Ġmencii": 8737,
      "ĠPrinco": 8738,
      "Ġvegeta": 8739,
      "Ġdimen": 8740,
      "Ġtertre": 8741,
      "amori": 8742,
      "Ġtatuajes": 8743,
      "moro": 8744,
      "Ġnep": 8745,
      "pugo": 8746,
      "belulino": 8747,
      "ĠTraktato": 8748,
      "Ġsubstre": 8749,
      "ronon": 8750,
      "ĠdaÅŃro": 8751,
      "Ġkursojn": 8752,
      "Ġdonacoj": 8753,
      "Ġmani": 8754,
      "Ġfervojo": 8755,
      "Ġ1940": 8756,
      "ATO": 8757,
      "Ġdiferenci": 8758,
      "Ġfinon": 8759,
      "ĠRajtoj": 8760,
      "Ã¦": 8761,
      "ĠAp": 8762,
      "Ġ1917": 8763,
      "ĠNepalo": 8764,
      "Ġpublikigas": 8765,
      "ĠvoÄīon": 8766,
      "kr": 8767,
      "kum": 8768,
      "gram": 8769,
      "Ġbien": 8770,
      "Ġpure": 8771,
      "wo": 8772,
      "Ġ1000": 8773,
      "ĠUl": 8774,
      "Ġpag": 8775,
      "Ġefikon": 8776,
      "ĠriÄīaj": 8777,
      "vna": 8778,
      "cico": 8779,
      "pova": 8780,
      "Ġring": 8781,
      "Ġkapitalis": 8782,
      "ĠFundamen": 8783,
      "Ġrigardu": 8784,
      "Ġvenontaj": 8785,
      "ED": 8786,
      "Ze": 8787,
      "Ġskato": 8788,
      "deman": 8789,
      "Ġmalsama": 8790,
      "Ġatend": 8791,
      "Ġpreciz": 8792,
      "talino": 8793,
      "Ġparadi": 8794,
      "ĠVirgulino": 8795,
      "fonoj": 8796,
      "Ġjunularo": 8797,
      "Ġofertas": 8798,
      "cata": 8799,
      "mamo": 8800,
      "ĠnovaÄµo": 8801,
      "Ġkapabloj": 8802,
      "Ġ1948": 8803,
      "Ġharmoni": 8804,
      "ĠAngla": 8805,
      "ktulo": 8806,
      "ward": 8807,
      "Ġalproksim": 8808,
      "ĠAdam": 8809,
      "Ġmateno": 8810,
      "ĠÄľene": 8811,
      "Ġdiferencoj": 8812,
      "dorf": 8813,
      "ĠTeo": 8814,
      "ĠBis": 8815,
      "Ġplejmulto": 8816,
      "Ġkorid": 8817,
      "Ġareon": 8818,
      "ĠNovjorko": 8819,
      "hx": 8820,
      "Ġgi": 8821,
      "Ġperdo": 8822,
      "Ġleteroj": 8823,
      "Ġnajbara": 8824,
      "kantoj": 8825,
      "Ġkatedralo": 8826,
      "sider": 8827,
      "Ġdekstre": 8828,
      "Ġrevuon": 8829,
      "jaran": 8830,
      "urs": 8831,
      "Ġnekuti": 8832,
      "Ġsuba": 8833,
      "vario": 8834,
      "Ġinfluis": 8835,
      "ĠreÄĿino": 8836,
      "Ġkomponisto": 8837,
      "atajn": 8838,
      "bras": 8839,
      "yd": 8840,
      "ĠKra": 8841,
      "Ġfilm": 8842,
      "TI": 8843,
      "mamoj": 8844,
      "ĠaÄĿa": 8845,
      "leton": 8846,
      "Ġmalbono": 8847,
      "Ġforpe": 8848,
      "Ġligilo": 8849,
      "ĠfetiÄīismo": 8850,
      "sis": 8851,
      "Ñĩ": 8852,
      "ĠMus": 8853,
      "Ġ1918": 8854,
      "Ġkolom": 8855,
      "ĠÅľia": 8856,
      "kaco": 8857,
      "Ġbun": 8858,
      "Ġsciencoj": 8859,
      "Ġparolata": 8860,
      "peci": 8861,
      "Ġ800": 8862,
      "Ġabomen": 8863,
      "Ġmalfrua": 8864,
      "85": 8865,
      "cicoj": 8866,
      "ĠTokio": 8867,
      "Ġmastro": 8868,
      "Ġdensa": 8869,
      "Ġgenu": 8870,
      "ĠQu": 8871,
      "ĠJosÃ©": 8872,
      "Las": 8873,
      "cero": 8874,
      "Ġesta": 8875,
      "ĠNiko": 8876,
      "Ġnacian": 8877,
      "Ġklima": 8878,
      "gluteoj": 8879,
      "pugoj": 8880,
      "vinte": 8881,
      "oriento": 8882,
      "ekshibicio": 8883,
      "gluteo": 8884,
      "mamego": 8885,
      "mamegoj": 8886,
      "civi": 8887,
      "pitaj": 8888,
      "Ġdiskut": 8889,
      "Ġinternaciajn": 8890,
      "95": 8891,
      "Ġå": 8892,
      "gener": 8893,
      "Ġrubri": 8894,
      "Ġreciproka": 8895,
      "Ġbudh": 8896,
      "ĠÄµurnalo": 8897,
      "erotismo": 8898,
      "Ġkomune": 8899,
      "Ġbap": 8900,
      "Ġinternaj": 8901,
      "))": 8902,
      "kokri": 8903,
      "Ġekrano": 8904,
      "jeviÄī": 8905,
      "ĠJose": 8906,
      "zerbajÄĿ": 8907,
      "Ġetike": 8908,
      "deto": 8909,
      "ĠRevolucio": 8910,
      "Ġtradukisto": 8911,
      "Ġpeko": 8912,
      "Ġjunulino": 8913,
      "ĠBjalistoko": 8914,
      "html": 8915,
      "Ġfunkcion": 8916,
      "Ġproviz": 8917,
      "ĠBone": 8918,
      "ĠGener": 8919,
      "pono": 8920,
      "toria": 8921,
      "Ġsubjekto": 8922,
      "Ġgvidas": 8923,
      "logian": 8924,
      "Ġsamajn": 8925,
      "zeno": 8926,
      "ĠpasaÄĿ": 8927,
      "Ġpopularaj": 8928,
      "Ġdisvasti": 8929,
      "Ġproceso": 8930,
      "Ġneevi": 8931,
      "ĠPekino": 8932,
      "fetiÄīismo": 8933,
      "daro": 8934,
      "tiu": 8935,
      "Ġfum": 8936,
      "lokoj": 8937,
      "celist": 8938,
      "midzi": 8939,
      "ĠInfanoj": 8940,
      "Ġaci": 8941,
      "Ġsenton": 8942,
      "Ġesprimoj": 8943,
      "Ġmalferm": 8944,
      "ĠIzraelidoj": 8945,
      "elli": 8946,
      "Ġ1939": 8947,
      "tabuo": 8948,
      "ĠBran": 8949,
      "Äīiesulino": 8950,
      "ĠWorld": 8951,
      "OJ": 8952,
      "langumi": 8953,
      "Ġplie": 8954,
      "dentoj": 8955,
      "Ġeblaj": 8956,
      "âĢĻ,": 8957,
      "ques": 8958,
      "seksumi": 8959,
      "midzo": 8960,
      "midzumo": 8961,
      "sesdeknaÅŃi": 8962,
      "Ġlernu": 8963,
      "Ġbataloj": 8964,
      "ĠInternational": 8965,
      "83": 8966,
      "sia": 8967,
      "Ġilu": 8968,
      "Ġdentoj": 8969,
      "SS": 8970,
      "osto": 8971,
      "Ġtemojn": 8972,
      "zeco": 8973,
      "Ġkulti": 8974,
      "Ġuzadon": 8975,
      "kano": 8976,
      "ĠDomo": 8977,
      "Ġoftaj": 8978,
      "Ġokulo": 8979,
      "Ġpotenc": 8980,
      "ÅĤo": 8981,
      "Ġkristanismo": 8982,
      "Ġkompi": 8983,
      "Ġpublikigi": 8984,
      "Ġtradicie": 8985,
      "Ġmaleb": 8986,
      "zito": 8987,
      "ĠIvan": 8988,
      "ĠFes": 8989,
      "ĠMag": 8990,
      "think": 8991,
      "tegori": 8992,
      "dismo": 8993,
      "Ġstrukturoj": 8994,
      "Lu": 8995,
      "Ġplua": 8996,
      "ĠaranÄĿis": 8997,
      "Ġrezulton": 8998,
      "Ġefekti": 8999,
      "ĠbranÄīoj": 9000,
      "Ġkatastrofo": 9001,
      "])": 9002,
      "ĠSoma": 9003,
      "Ġpira": 9004,
      "Ġkonsistis": 9005,
      "Ġkongresejo": 9006,
      "Ġresan": 9007,
      "ĠIlia": 9008,
      "Ġkolektis": 9009,
      "ciis": 9010,
      "ĠÄĿem": 9011,
      "ont": 9012,
      "Ġskalo": 9013,
      "ĠlanÄīis": 9014,
      "Ġgepatra": 9015,
      "ciklopedio": 9016,
      "dino": 9017,
      "zaro": 9018,
      "Ġmaluti": 9019,
      "ĠFla": 9020,
      "Ġstaton": 9021,
      "Ġsolvon": 9022,
      "Ġhered": 9023,
      "Ġaliron": 9024,
      "Ġartisto": 9025,
      "Ġaldono": 9026,
      "Ġeblo": 9027,
      "Ġsacerdo": 9028,
      "Ġrigardante": 9029,
      "Ġenhavis": 9030,
      "Ġkomunik": 9031,
      "retario": 9032,
      "ĠmanÄĿaÄµo": 9033,
      "ters": 9034,
      "Ġunuso": 9035,
      "siko": 9036,
      "Ġterminojn": 9037,
      "Ġnivelon": 9038,
      "Estis": 9039,
      "Ġerarojn": 9040,
      "ute": 9041,
      "tiro": 9042,
      "kes": 9043,
      "titan": 9044,
      "ĠindiÄĿ": 9045,
      "Ġ$": 9046,
      "Ġese": 9047,
      "logis": 9048,
      "Ġnegle": 9049,
      "ĠDec": 9050,
      "Ġmonumento": 9051,
      "Ġfakton": 9052,
      "Ġromi": 9053,
      "Ġindiko": 9054,
      "Ġamikeco": 9055,
      "Ġripoz": 9056,
      "ĠIndi": 9057,
      "Ġelektoj": 9058,
      "amik": 9059,
      "Komun": 9060,
      "ĠTute": 9061,
      "ville": 9062,
      "ĠfondiÄĿis": 9063,
      "ĠPrezi": 9064,
      "Ġpremion": 9065,
      "Ġredukti": 9066,
      "Ġpricelist": 9067,
      "Ġimper": 9068,
      "Ġinstancoj": 9069,
      "ĠIndonezio": 9070,
      "Ġvivantaj": 9071,
      "tuala": 9072,
      "ĠpaÄĿaro": 9073,
      "Ġkrimo": 9074,
      "Ġklarigo": 9075,
      "ĠÄĿuas": 9076,
      "Ġplenkreskuloj": 9077,
      "AE": 9078,
      "eba": 9079,
      "Ġesperanton": 9080,
      "ĠChu": 9081,
      "2005": 9082,
      "Ġenergion": 9083,
      "ĠpseÅŃ": 9084,
      "Ġunueco": 9085,
      "Ġesting": 9086,
      "Ġjunula": 9087,
      "Ġdeputi": 9088,
      "Ġribel": 9089,
      "Ġokcidentaj": 9090,
      "Afriko": 9091,
      "raÅŃ": 9092,
      "kunsi": 9093,
      "jam": 9094,
      "Ġmilitis": 9095,
      "Ġfrat": 9096,
      "Ġekzemplon": 9097,
      "Ġpreciza": 9098,
      "omente": 9099,
      "Ġliberan": 9100,
      "Ġkaptitaj": 9101,
      "Ġ1968": 9102,
      "Ġtransformi": 9103,
      "Ġdevo": 9104,
      "log": 9105,
      "tantojn": 9106,
      "Ġcar": 9107,
      "ĠCO": 9108,
      "ĠÄīirkaÅŃaÄµo": 9109,
      "Ġfruktoj": 9110,
      "Ġlernolibro": 9111,
      "tantajn": 9112,
      "profun": 9113,
      "ĠKarl": 9114,
      "ĠSerbio": 9115,
      "ĠSor": 9116,
      "Ġfajr": 9117,
      "Ġenkondukis": 9118,
      "rey": 9119,
      "Ġeska": 9120,
      "ĠHum": 9121,
      "Ġmara": 9122,
      "ponon": 9123,
      "Ġtaksas": 9124,
      "Ġfek": 9125,
      "Ġlibr": 9126,
      "Ġkomenca": 9127,
      "Ġdanc": 9128,
      "ght": 9129,
      "lim": 9130,
      "arado": 9131,
      "Ġfilme": 9132,
      "ĠÄĿust": 9133,
      "Ġhipote": 9134,
      "Ġfanto": 9135,
      "ĠIII": 9136,
      "Ġtatuaje": 9137,
      "ism": 9138,
      "Ġprezoj": 9139,
      "vinco": 9140,
      "Ġrilataj": 9141,
      "turado": 9142,
      "Ġdialogo": 9143,
      "TML": 9144,
      "ĠRoterdamo": 9145,
      "ction": 9146,
      "my": 9147,
      "Ġdest": 9148,
      "Ġligoj": 9149,
      "Ġvesto": 9150,
      "EI": 9151,
      "keno": 9152,
      "ĠEven": 9153,
      "Ġsendita": 9154,
      "Ġkvaza": 9155,
      "dareco": 9156,
      "veni": 9157,
      "Ġmalagra": 9158,
      "Ġmalproksima": 9159,
      "Ġrevuoj": 9160,
      "kiuj": 9161,
      "Ġvidin": 9162,
      "ĠEsperantan": 9163,
      "Ġmunici": 9164,
      "Ġintegri": 9165,
      "Ġankorau": 9166,
      "Ġkvardek": 9167,
      "Ġkapablis": 9168,
      "opini": 9169,
      "Ġsocialisma": 9170,
      "Ġinci": 9171,
      "ĠEvange": 9172,
      "âĢ¢": 9173,
      "Ġmov": 9174,
      "Ġkant": 9175,
      "Ġvastan": 9176,
      "ktante": 9177,
      "Ġcigar": 9178,
      "ĠHerzberg": 9179,
      "omi": 9180,
      "ĠCX": 9181,
      "ĠmonaÄ¥ejo": 9182,
      "Ġkondamn": 9183,
      "Pol": 9184,
      "tifi": 9185,
      "rana": 9186,
      "Ġalire": 9187,
      "ĠÅĿtataj": 9188,
      "2014": 9189,
      "Ġmatematiko": 9190,
      "Ġimi": 9191,
      "ĠAN": 9192,
      "cezo": 9193,
      "Ġinteresan": 9194,
      "Ġadministrado": 9195,
      "Ġtransdonis": 9196,
      "Ġavo": 9197,
      "dok": 9198,
      "Ġesploris": 9199,
      "Ġkliento": 9200,
      "Ġtendaro": 9201,
      "ĠMora": 9202,
      "iÄĿus": 9203,
      "Ġaliloke": 9204,
      "Ã£o": 9205,
      "Nur": 9206,
      "Pas": 9207,
      "kongres": 9208,
      "ĠBrun": 9209,
      "ludo": 9210,
      "Ġmekan": 9211,
      "Plej": 9212,
      "Ġsla": 9213,
      "rantoj": 9214,
      "Ġpartoprenos": 9215,
      "Ġamike": 9216,
      "Ġdivido": 9217,
      "cke": 9218,
      "Ġekzisti": 9219,
      "Ġstudento": 9220,
      "intojn": 9221,
      "olk": 9222,
      "Ġrestado": 9223,
      "ĠHistorio": 9224,
      "Ġmallongaj": 9225,
      "Ġkolonioj": 9226,
      "ĠRigardu": 9227,
      ".),": 9228,
      "ĠÄĿeneralan": 9229,
      "Ġgravecon": 9230,
      "ĠlaÅŃte": 9231,
      "Ġklarigojn": 9232,
      "ĠIslando": 9233,
      "Ġurbe": 9234,
      "Ġgrafi": 9235,
      "uth": 9236,
      "Ġ1932": 9237,
      "Ġindustria": 9238,
      "Ġincen": 9239,
      "Ġarbi": 9240,
      "Ġpagas": 9241,
      "Ġ:)": 9242,
      "Ġkaraj": 9243,
      "Ġmiliardoj": 9244,
      "one": 9245,
      "Ġpole": 9246,
      "Ġaron": 9247,
      "Ġakcen": 9248,
      "Ġnormo": 9249,
      "igitan": 9250,
      "Ġterminoj": 9251,
      "Ġpano": 9252,
      "Ġpentris": 9253,
      "favor": 9254,
      "Ġnecesaj": 9255,
      "Ġbrun": 9256,
      "Ġsubme": 9257,
      "Ġ1988": 9258,
      "lego": 9259,
      "ĠEtio": 9260,
      "Ġ75": 9261,
      "komunumo": 9262,
      "liÄĿas": 9263,
      "vejo": 9264,
      "kana": 9265,
      "Ġpiedi": 9266,
      "tigos": 9267,
      "Man": 9268,
      "Ġklopodoj": 9269,
      "ĠNikolao": 9270,
      "Ġbuti": 9271,
      "Ġverdaj": 9272,
      "ĠokazaÄµo": 9273,
      "Ġkompletigi": 9274,
      "Ð¾Ð²": 9275,
      "Ġhungaroj": 9276,
      "mara": 9277,
      "Î¹": 9278,
      "ĠnomiÄĿis": 9279,
      "karto": 9280,
      "Ġelstaraj": 9281,
      "Ġkomplika": 9282,
      "Ġsenes": 9283,
      "Ġkonsento": 9284,
      "Ġmali": 9285,
      "Ġtrankvila": 9286,
      "Ġformato": 9287,
      "ĠSeb": 9288,
      "Ġdika": 9289,
      "ĠGlo": 9290,
      "Ġprezentado": 9291,
      "laboro": 9292,
      "ĠvojaÄĿi": 9293,
      "ĠfiniÄĿas": 9294,
      "Ġkanalo": 9295,
      "Ġrenkontas": 9296,
      "Ġdirite": 9297,
      "Ġfizika": 9298,
      "mur": 9299,
      "poro": 9300,
      "Ġliterojn": 9301,
      "Ġinterkompren": 9302,
      "Ġmastr": 9303,
      "ĠThomas": 9304,
      "Ġestraranoj": 9305,
      "Ġgejunuloj": 9306,
      "iza": 9307,
      "ĠenloÄĿ": 9308,
      "Ġdubas": 9309,
      "fort": 9310,
      "stacio": 9311,
      "Ġceter": 9312,
      "Ġregistaron": 9313,
      "Ġabsur": 9314,
      "Ġvizitas": 9315,
      "ĠRomia": 9316,
      "Ġduobla": 9317,
      "ilvan": 9318,
      "ĠGub": 9319,
      "peno": 9320,
      "ĠKomunumo": 9321,
      "Ġ54": 9322,
      "eblajn": 9323,
      "ĠHispan": 9324,
      "ĠlarÄĿ": 9325,
      "Ġvigla": 9326,
      "Ġeterne": 9327,
      "mena": 9328,
      "periodo": 9329,
      "????": 9330,
      "hl": 9331,
      "tein": 9332,
      "ĠAus": 9333,
      "Ġgrafo": 9334,
      "Ġpensojn": 9335,
      "Ġkapablon": 9336,
      "Ġfrazon": 9337,
      "?)": 9338,
[...]
